{
  "version": "1.0",
  "truncation": null,
  "padding": {
    "strategy": "BatchLongest",
    "direction": "Right",
    "pad_to_multiple_of": null,
    "pad_id": 5,
    "pad_type_id": 0,
    "pad_token": "<|pad|>"
  },
  "added_tokens": [
    {
      "id": 0,
      "content": "<|user|>",
      "single_word": false,
      "lstrip": false,
      "rstrip": false,
      "normalized": false,
      "special": true
    },
    {
      "id": 1,
      "content": "<|assistant|>",
      "single_word": false,
      "lstrip": false,
      "rstrip": false,
      "normalized": false,
      "special": true
    },
    {
      "id": 2,
      "content": "<|tool|>",
      "single_word": false,
      "lstrip": false,
      "rstrip": false,
      "normalized": false,
      "special": true
    },
    {
      "id": 3,
      "content": "<|obs|>",
      "single_word": false,
      "lstrip": false,
      "rstrip": false,
      "normalized": false,
      "special": true
    },
    {
      "id": 4,
      "content": "<|end|>",
      "single_word": false,
      "lstrip": false,
      "rstrip": false,
      "normalized": false,
      "special": true
    },
    {
      "id": 5,
      "content": "<|pad|>",
      "single_word": false,
      "lstrip": false,
      "rstrip": false,
      "normalized": false,
      "special": true
    },
    {
      "id": 6,
      "content": "<|unk|>",
      "single_word": false,
      "lstrip": false,
      "rstrip": false,
      "normalized": false,
      "special": true
    }
  ],
  "normalizer": null,
  "pre_tokenizer": {
    "type": "ByteLevel",
    "add_prefix_space": false,
    "trim_offsets": true,
    "use_regex": true
  },
  "post_processor": null,
  "decoder": {
    "type": "ByteLevel",
    "add_prefix_space": true,
    "trim_offsets": true,
    "use_regex": true
  },
  "model": {
    "type": "BPE",
    "dropout": null,
    "unk_token": "<|unk|>",
    "continuing_subword_prefix": null,
    "end_of_word_suffix": null,
    "fuse_unk": false,
    "byte_fallback": false,
    "ignore_merges": false,
    "vocab": {
      "<|user|>": 0,
      "<|assistant|>": 1,
      "<|tool|>": 2,
      "<|obs|>": 3,
      "<|end|>": 4,
      "<|pad|>": 5,
      "<|unk|>": 6,
      "!": 7,
      "\"": 8,
      "#": 9,
      "$": 10,
      "%": 11,
      "&": 12,
      "'": 13,
      "(": 14,
      ")": 15,
      "*": 16,
      "+": 17,
      ",": 18,
      "-": 19,
      ".": 20,
      "/": 21,
      "0": 22,
      "1": 23,
      "2": 24,
      "3": 25,
      "4": 26,
      "5": 27,
      "6": 28,
      "7": 29,
      "8": 30,
      "9": 31,
      ":": 32,
      ";": 33,
      "<": 34,
      "=": 35,
      ">": 36,
      "?": 37,
      "@": 38,
      "A": 39,
      "B": 40,
      "C": 41,
      "D": 42,
      "E": 43,
      "F": 44,
      "G": 45,
      "H": 46,
      "I": 47,
      "J": 48,
      "K": 49,
      "L": 50,
      "M": 51,
      "N": 52,
      "O": 53,
      "P": 54,
      "Q": 55,
      "R": 56,
      "S": 57,
      "T": 58,
      "U": 59,
      "V": 60,
      "W": 61,
      "X": 62,
      "Y": 63,
      "Z": 64,
      "[": 65,
      "\\": 66,
      "]": 67,
      "^": 68,
      "_": 69,
      "`": 70,
      "a": 71,
      "b": 72,
      "c": 73,
      "d": 74,
      "e": 75,
      "f": 76,
      "g": 77,
      "h": 78,
      "i": 79,
      "j": 80,
      "k": 81,
      "l": 82,
      "m": 83,
      "n": 84,
      "o": 85,
      "p": 86,
      "q": 87,
      "r": 88,
      "s": 89,
      "t": 90,
      "u": 91,
      "v": 92,
      "w": 93,
      "x": 94,
      "y": 95,
      "z": 96,
      "{": 97,
      "|": 98,
      "}": 99,
      "~": 100,
      "¡": 101,
      "¢": 102,
      "£": 103,
      "¤": 104,
      "¥": 105,
      "¦": 106,
      "§": 107,
      "¨": 108,
      "©": 109,
      "ª": 110,
      "«": 111,
      "¬": 112,
      "®": 113,
      "¯": 114,
      "°": 115,
      "±": 116,
      "²": 117,
      "³": 118,
      "´": 119,
      "µ": 120,
      "¶": 121,
      "·": 122,
      "¸": 123,
      "¹": 124,
      "º": 125,
      "»": 126,
      "¼": 127,
      "½": 128,
      "¾": 129,
      "¿": 130,
      "Â": 131,
      "Ã": 132,
      "Ä": 133,
      "Å": 134,
      "Æ": 135,
      "Ç": 136,
      "É": 137,
      "Ê": 138,
      "Ë": 139,
      "Ì": 140,
      "Î": 141,
      "Ï": 142,
      "Ð": 143,
      "Ñ": 144,
      "Ó": 145,
      "Ö": 146,
      "×": 147,
      "Ø": 148,
      "Ù": 149,
      "Û": 150,
      "à": 151,
      "á": 152,
      "â": 153,
      "ã": 154,
      "ä": 155,
      "å": 156,
      "æ": 157,
      "ç": 158,
      "è": 159,
      "é": 160,
      "ê": 161,
      "ë": 162,
      "ì": 163,
      "í": 164,
      "ï": 165,
      "ð": 166,
      "ĉ": 167,
      "Ċ": 168,
      "č": 169,
      "Ġ": 170,
      "Ģ": 171,
      "ģ": 172,
      "Ĥ": 173,
      "ĥ": 174,
      "Ħ": 175,
      "ħ": 176,
      "Ĩ": 177,
      "ĩ": 178,
      "Ī": 179,
      "ī": 180,
      "Ĭ": 181,
      "ĭ": 182,
      "Į": 183,
      "į": 184,
      "İ": 185,
      "ı": 186,
      "Ĳ": 187,
      "ĳ": 188,
      "Ĵ": 189,
      "ĵ": 190,
      "Ķ": 191,
      "ķ": 192,
      "ĸ": 193,
      "Ĺ": 194,
      "ĺ": 195,
      "Ļ": 196,
      "ļ": 197,
      "Ľ": 198,
      "ľ": 199,
      "Ŀ": 200,
      "ŀ": 201,
      "Ł": 202,
      "ł": 203,
      "Ń": 204,
      "ĠĠ": 205,
      "ĠĠĠĠ": 206,
      "čĊ": 207,
      "Ġt": 208,
      "in": 209,
      "Ġa": 210,
      "he": 211,
      "re": 212,
      "ĠĠĠ": 213,
      "on": 214,
      "er": 215,
      "ĠĠĠĠĠĠĠĠ": 216,
      "at": 217,
      "Ġs": 218,
      "or": 219,
      "Ġthe": 220,
      "en": 221,
      "es": 222,
      "is": 223,
      "Ġc": 224,
      "ĠĠĠĠĠĠĠ": 225,
      "Ġo": 226,
      "al": 227,
      "it": 228,
      "ar": 229,
      "Ġf": 230,
      "an": 231,
      "Ġp": 232,
      "Ġw": 233,
      "ed": 234,
      "el": 235,
      "Ġin": 236,
      "Ġb": 237,
      "ion": 238,
      "ing": 239,
      "Ġd": 240,
      "Ġan": 241,
      "Ġof": 242,
      "Ġm": 243,
      "ou": 244,
      "le": 245,
      "ic": 246,
      "Ġto": 247,
      "et": 248,
      "st": 249,
      "Ġre": 250,
      "ent": 251,
      "Ġand": 252,
      "Ġn": 253,
      "ro": 254,
      "am": 255,
      "ct": 256,
      "as": 257,
      "Ġ=": 258,
      "Ġl": 259,
      "ĠĠĠĠĠĠĠĠĠĠĠ": 260,
      "ur": 261,
      "il": 262,
      "if": 263,
      "Ġh": 264,
      "de": 265,
      "\"\"": 266,
      "Ġth": 267,
      "se": 268,
      "Ġe": 269,
      "om": 270,
      "ce": 271,
      "ut": 272,
      "Ġis": 273,
      "id": 274,
      "ot": 275,
      "im": 276,
      "ra": 277,
      "ol": 278,
      "elf": 279,
      "Ġfor": 280,
      "Ġg": 281,
      "ation": 282,
      "ĠT": 283,
      "ve": 284,
      "un": 285,
      "ig": 286,
      "Ġst": 287,
      "ch": 288,
      "ul": 289,
      "ad": 290,
      "ver": 291,
      "Ġbe": 292,
      "ist": 293,
      "pe": 294,
      "um": 295,
      "ĠA": 296,
      "Ġ(": 297,
      "ow": 298,
      "ly": 299,
      "Ġif": 300,
      "Ġ'": 301,
      "ĠĠĠĠĠĠĠĠĠĠĠĠĠĠĠĠ": 302,
      "ĠI": 303,
      "us": 304,
      "ĠS": 305,
      "Ġcon": 306,
      "ĠC": 307,
      "ir": 308,
      "od": 309,
      "em": 310,
      "):": 311,
      "Ġon": 312,
      "ag": 313,
      "ate": 314,
      "Ġv": 315,
      "urn": 316,
      "ame": 317,
      "\"\"\"": 318,
      "Ġself": 319,
      "ith": 320,
      "Ġthat": 321,
      "ue": 322,
      "ab": 323,
      "pt": 324,
      "Ġas": 325,
      "res": 326,
      "Ġor": 327,
      "Ġ1": 328,
      "ri": 329,
      "ect": 330,
      "ĠĠĠĠĠĠĠĠĠĠĠĠĠĠĠ": 331,
      "Ġpro": 332,
      "ers": 333,
      "Ġ\"\"\"": 334,
      "est": 335,
      "--": 336,
      "qu": 337,
      "ay": 338,
      "Ġex": 339,
      "lo": 340,
      "ĠN": 341,
      "âĢ": 342,
      "Ġwith": 343,
      "turn": 344,
      "Ġ#": 345,
      "Ġnot": 346,
      "her": 347,
      "ĠM": 348,
      "Ġal": 349,
      "ess": 350,
      "pp": 351,
      "and": 352,
      "nt": 353,
      "ĠP": 354,
      "Ġde": 355,
      "ck": 356,
      "one": 357,
      "Ġy": 358,
      "Ġit": 359,
      "ke": 360,
      "Ġ:": 361,
      "Ġ\"": 362,
      "th": 363,
      "Ġare": 364,
      "Ġreturn": 365,
      "Ġwh": 366,
      "ĠThe": 367,
      "op": 368,
      "self": 369,
      "ter": 370,
      "rom": 371,
      "ment": 372,
      "os": 373,
      "ĠR": 374,
      "Ġcom": 375,
      "end": 376,
      "ex": 377,
      "Ġr": 378,
      "ill": 379,
      "ult": 380,
      "ata": 381,
      "ort": 382,
      "ĠF": 383,
      "def": 384,
      "ile": 385,
      "par": 386,
      "iv": 387,
      "ore": 388,
      "Ġsu": 389,
      "our": 390,
      "ĠE": 391,
      "ain": 392,
      "ere": 393,
      "ity": 394,
      "ĠD": 395,
      "ies": 396,
      "Ġfrom": 397,
      "Ġby": 398,
      "Ġel": 399,
      "Ġhe": 400,
      "nd": 401,
      "Ġat": 402,
      "og": 403,
      "ew": 404,
      "ld": 405,
      "ip": 406,
      "orm": 407,
      "ĠH": 408,
      "ĠB": 409,
      "art": 410,
      "()": 411,
      "**": 412,
      "Ġ2": 413,
      "Ġres": 414,
      "ype": 415,
      "Ġar": 416,
      "pl": 417,
      "ht": 418,
      "oc": 419,
      "all": 420,
      "con": 421,
      "out": 422,
      "iz": 423,
      "Ġse": 424,
      "ive": 425,
      "ure": 426,
      "ath": 427,
      "ĠW": 428,
      "Ġch": 429,
      "cl": 430,
      "ant": 431,
      "name": 432,
      "ass": 433,
      "('": 434,
      "ap": 435,
      "00": 436,
      "ror": 437,
      "age": 438,
      "ine": 439,
      "ave": 440,
      "))": 441,
      "ction": 442,
      "ĠG": 443,
      "ord": 444,
      "',": 445,
      "arg": 446,
      "Ġwas": 447,
      "Ġcont": 448,
      "Ġu": 449,
      "ise": 450,
      "ac": 451,
      "ode": 452,
      "form": 453,
      "ang": 454,
      "ial": 455,
      "._": 456,
      "ĠL": 457,
      "alue": 458,
      "ast": 459,
      "able": 460,
      "bj": 461,
      "int": 462,
      "Ġsh": 463,
      "str": 464,
      "Ġun": 465,
      "Ġ+": 466,
      "Ġstr": 467,
      "Ġus": 468,
      "Ġint": 469,
      "ict": 470,
      "ance": 471,
      "Ġthis": 472,
      "ated": 473,
      "rou": 474,
      "param": 475,
      "ost": 476,
      "Ġcan": 477,
      "ical": 478,
      "ff": 479,
      "ry": 480,
      "Ġle": 481,
      "ime": 482,
      "ption": 483,
      "Ġim": 484,
      "are": 485,
      "Ġen": 486,
      "ud": 487,
      "ork": 488,
      "ĠU": 489,
      "ight": 490,
      "ĠO": 491,
      "ould": 492,
      "ase": 493,
      "ple": 494,
      "Ġhave": 495,
      "per": 496,
      "ire": 497,
      "ary": 498,
      "')": 499,
      "ust": 500,
      "get": 501,
      "ĠĠĠĠĠĠĠĠĠĠĠĠĠĠĠĠĠĠĠ": 502,
      "Ġ-": 503,
      "Ġall": 504,
      "ind": 505,
      "ĠNone": 506,
      "ans": 507,
      "Ġk": 508,
      "Ġra": 509,
      "ich": 510,
      "cess": 511,
      "'s": 512,
      "['": 513,
      "ther": 514,
      "rror": 515,
      "Ġma": 516,
      "key": 517,
      "Ġwe": 518,
      "']": 519,
      "ard": 520,
      "ell": 521,
      "Ġpl": 522,
      "The": 523,
      "act": 524,
      "Error": 525,
      "ack": 526,
      "----": 527,
      "ber": 528,
      "ents": 529,
      "ext": 530,
      "':": 531,
      "ome": 532,
      "ĠJ": 533,
      "Ġab": 534,
      "Ġad": 535,
      "ition": 536,
      "ub": 537,
      "Ġyou": 538,
      "ress": 539,
      "ace": 540,
      "Ġ[": 541,
      "Ġcl": 542,
      "Ġne": 543,
      "port": 544,
      "Ġ{": 545,
      "ount": 546,
      "ser": 547,
      "âĢĻ": 548,
      "vel": 549,
      "val": 550,
      "Ġdata": 551,
      "put": 552,
      "Ġwhe": 553,
      "Ġj": 554,
      "ound": 555,
      "ations": 556,
      "pon": 557,
      "ok": 558,
      "ib": 559,
      "ail": 560,
      "),": 561,
      "Ġwill": 562,
      "du": 563,
      "Ġwhich": 564,
      "ĠIn": 565,
      "type": 566,
      "Ġelse": 567,
      "Ġdo": 568,
      "Ġhas": 569,
      "der": 570,
      "ign": 571,
      "ide": 572,
      "path": 573,
      "Ġout": 574,
      "``": 575,
      "ia": 576,
      ").": 577,
      "Ġtheir": 578,
      "ice": 579,
      "bject": 580,
      "ous": 581,
      "Ġac": 582,
      "(\"": 583,
      "ong": 584,
      "ĠTh": 585,
      "ĠV": 586,
      "ite": 587,
      "ear": 588,
      "sion": 589,
      "com": 590,
      "ĠâĢ": 591,
      "Ġ0": 592,
      "Ġsc": 593,
      "ual": 594,
      "Ġcomm": 595,
      "ak": 596,
      "ory": 597,
      "Ġcol": 598,
      "ild": 599,
      "ater": 600,
      "Ġper": 601,
      "ence": 602,
      "ph": 603,
      "ize": 604,
      "pec": 605,
      "Ġ%": 606,
      "rue": 607,
      "so": 608,
      "ach": 609,
      "av": 610,
      "Ġmore": 611,
      "etw": 612,
      "gh": 613,
      "Ġthey": 614,
      "Ġwere": 615,
      "ces": 616,
      "Ġother": 617,
      "Ġ==": 618,
      "..": 619,
      "Ġpar": 620,
      "Ġpre": 621,
      "ient": 622,
      "data": 623,
      "Ġnew": 624,
      "Ġvalue": 625,
      "dex": 626,
      "ys": 627,
      "iel": 628,
      "Ġdis": 629,
      "Ġbut": 630,
      "None": 631,
      "Ġone": 632,
      "Ġdef": 633,
      "Ġlog": 634,
      "ix": 635,
      "ield": 636,
      "Ġget": 637,
      "ors": 638,
      "own": 639,
      "rib": 640,
      "Ġro": 641,
      "ates": 642,
      "Ġ*": 643,
      "file": 644,
      "ose": 645,
      "Ġev": 646,
      "Ġlist": 647,
      "args": 648,
      "eth": 649,
      "app": 650,
      "Ġmod": 651,
      "ug": 652,
      "Ġ19": 653,
      "Ġname": 654,
      "quest": 655,
      "set": 656,
      "ep": 657,
      "Ġ_": 658,
      "Ġid": 659,
      "Ġresult": 660,
      "Ġtime": 661,
      "Ġapp": 662,
      "ĠK": 663,
      "Ġpart": 664,
      "stance": 665,
      "ool": 666,
      "Ġman": 667,
      "ings": 668,
      "cre": 669,
      "Ġfile": 670,
      "url": 671,
      "Ġpr": 672,
      "format": 673,
      "Ġraise": 674,
      "ray": 675,
      "Ġver": 676,
      "Ġgen": 677,
      "ree": 678,
      "ues": 679,
      "fig": 680,
      "Ġso": 681,
      "Ġme": 682,
      "Ġnum": 683,
      "ens": 684,
      "Ġgo": 685,
      "ian": 686,
      "che": 687,
      "ge": 688,
      "ĠĠĠĠĠĠĠĠĠĠĠĠĠĠĠĠĠĠĠĠĠĠĠĠĠĠĠĠĠĠĠĠ": 689,
      "ĠSt": 690,
      "ove": 691,
      "Ġset": 692,
      "Ġ3": 693,
      "low": 694,
      "fere": 695,
      "Ġup": 696,
      "att": 697,
      "alse": 698,
      "Ġdes": 699,
      "Ġx": 700,
      "Ġ>": 701,
      "****": 702,
      "ely": 703,
      "ms": 704,
      "red": 705,
      "Ġalso": 706,
      "Ġsy": 707,
      "Ġval": 708,
      "read": 709,
      "ish": 710,
      "Ġnp": 711,
      "ĠThis": 712,
      "Ġfun": 713,
      "ange": 714,
      "cept": 715,
      "pro": 716,
      "\",": 717,
      "irst": 718,
      "Ġwork": 719,
      "ions": 720,
      "ma": 721,
      "Ġthan": 722,
      "uth": 723,
      "Ġspec": 724,
      "Ġser": 725,
      "Ġadd": 726,
      "au": 727,
      "Ġinto": 728,
      "les": 729,
      "ault": 730,
      "Ġno": 731,
      "reat": 732,
      "Ġqu": 733,
      "Ġreg": 734,
      "ĠCh": 735,
      "ook": 736,
      "Ġsp": 737,
      "Ġtr": 738,
      "Ġtra": 739,
      "up": 740,
      "Ġwho": 741,
      "roup": 742,
      "ator": 743,
      "âĢĿ": 744,
      "\")": 745,
      "Ġhis": 746,
      "ponse": 747,
      "ific": 748,
      "arch": 749,
      "Ġuse": 750,
      "Ġem": 751,
      "eg": 752,
      "sh": 753,
      "eter": 754,
      "Ġmay": 755,
      "Ġabout": 756,
      "ied": 757,
      "Ġthere": 758,
      "Ġover": 759,
      "cur": 760,
      "Ġits": 761,
      "row": 762,
      "Ġpe": 763,
      "Ġ<": 764,
      "Ġbeen": 765,
      "olog": 766,
      "Ġvar": 767,
      "rit": 768,
      "Ġatt": 769,
      "Ġyour": 770,
      "ample": 771,
      "ĠĠĠĠĠĠĠĠĠĠĠĠĠĠĠĠĠĠĠĠĠĠĠ": 772,
      "Ġyear": 773,
      "lic": 774,
      "ren": 775,
      "Ġag": 776,
      "list": 777,
      "Ġkey": 778,
      "ask": 779,
      "Ġlen": 780,
      "ĠIt": 781,
      "te": 782,
      "fo": 783,
      "ie": 784,
      "ays": 785,
      "to": 786,
      "ns": 787,
      "Ġwhen": 788,
      "Ġsome": 789,
      "Ġform": 790,
      "Ġfirst": 791,
      "oint": 792,
      "ule": 793,
      "Ġobject": 794,
      "ection": 795,
      "son": 796,
      "Ġinter": 797,
      "Ġused": 798,
      "Ġany": 799,
      "Ġonly": 800,
      "pos": 801,
      "Ġli": 802,
      "vir": 803,
      "ink": 804,
      "ethod": 805,
      "'.": 806,
      "Ġrec": 807,
      "Ġact": 808,
      "ram": 809,
      "ĠIf": 810,
      "Ġstud": 811,
      "Ġarg": 812,
      "Ġco": 813,
      "Ġthem": 814,
      "col": 815,
      "ception": 816,
      "ities": 817,
      "ally": 818,
      "cont": 819,
      "Ġfil": 820,
      "\":": 821,
      "hed": 822,
      "sc": 823,
      "Ġrel": 824,
      "add": 825,
      "enc": 826,
      "pect": 827,
      "Ġtw": 828,
      "Ġcall": 829,
      "Ġi": 830,
      "ll": 831,
      "])": 832,
      "ĠâĢľ": 833,
      "stem": 834,
      "In": 835,
      "Ġincl": 836,
      "viron": 837,
      "igh": 838,
      "Ġrem": 839,
      "10": 840,
      "Ġhad": 841,
      "its": 842,
      "ines": 843,
      "ning": 844,
      "Ġprov": 845,
      "dict": 846,
      "atch": 847,
      "ife": 848,
      "Ġdict": 849,
      "Ġ``": 850,
      "ute": 851,
      "Ġcur": 852,
      "Ġcount": 853,
      "etwork": 854,
      "Ġdif": 855,
      "ery": 856,
      "velop": 857,
      "Ġtry": 858,
      "value": 859,
      "vent": 860,
      "ause": 861,
      "aw": 862,
      "irect": 863,
      "ark": 864,
      "Ġneed": 865,
      "Ġshould": 866,
      "ople": 867,
      "='": 868,
      "Ġthese": 869,
      "ement": 870,
      "],": 871,
      "load": 872,
      "eturn": 873,
      "Ġ4": 874,
      "arent": 875,
      "ĠUn": 876,
      "__": 877,
      "Ġbec": 878,
      "Ġpos": 879,
      "Ġsub": 880,
      "rent": 881,
      "Ġparam": 882,
      "Ġ200": 883,
      "error": 884,
      "ved": 885,
      "ape": 886,
      "Ġimport": 887,
      "ec": 888,
      "ft": 889,
      "Ġwould": 890,
      "Ġind": 891,
      "Ġkn": 892,
      "vironment": 893,
      "ract": 894,
      "old": 895,
      "Ġfunction": 896,
      "dition": 897,
      "mod": 898,
      "Ġcre": 899,
      "''": 900,
      "index": 901,
      "Ġam": 902,
      "ource": 903,
      "wargs": 904,
      "return": 905,
      "ious": 906,
      "ational": 907,
      "iver": 908,
      "ative": 909,
      "ĠY": 910,
      "valid": 911,
      "ick": 912,
      "Ġte": 913,
      "als": 914,
      "ists": 915,
      "fter": 916,
      "els": 917,
      "vice": 918,
      "ĠCon": 919,
      "rough": 920,
      "Ġoff": 921,
      "Ġmost": 922,
      "Ġcons": 923,
      "Ġunder": 924,
      "ular": 925,
      "Ġfound": 926,
      "Ġloc": 927,
      "ĠĠĠĠĠĠĠĠĠĠĠĠ": 928,
      "Ġsuch": 929,
      "fil": 930,
      "Ġph": 931,
      "ution": 932,
      "mer": 933,
      "instance": 934,
      "Ġcomp": 935,
      "ffect": 936,
      "append": 937,
      "Ġtwo": 938,
      "ames": 939,
      "oin": 940,
      "Ġchild": 941,
      "lp": 942,
      "eters": 943,
      "ude": 944,
      "Ġgener": 945,
      "min": 946,
      "ern": 947,
      "ĠTrue": 948,
      "ating": 949,
      "Ġ`": 950,
      "log": 951,
      "Ġelif": 952,
      "Ġend": 953,
      "ased": 954,
      "Ġhow": 955,
      "Ġprodu": 956,
      "lock": 957,
      "Ġpeople": 958,
      "ran": 959,
      "ss": 960,
      "Ġext": 961,
      "Ex": 962,
      "ric": 963,
      "ty": 964,
      "ject": 965,
      "[\"": 966,
      "Ġtype": 967,
      "Ġsa": 968,
      "fore": 969,
      "ert": 970,
      "Ġpath": 971,
      "ful": 972,
      "Ġexcept": 973,
      "een": 974,
      "ments": 975,
      "ature": 976,
      "ages": 977,
      "date": 978,
      "ument": 979,
      "Ġfield": 980,
      "Ġtrans": 981,
      "info": 982,
      "py": 983,
      "Ġche": 984,
      "ars": 985,
      "ices": 986,
      "Ġpol": 987,
      "Ġdevelop": 988,
      "Ġsupp": 989,
      "Ġthrough": 990,
      "ts": 991,
      "ood": 992,
      "ced": 993,
      "Ġprint": 994,
      "iven": 995,
      "Ġ5": 996,
      "99": 997,
      "pr": 998,
      "etween": 999,
      "Ġmethod": 1000,
      "Ġnumber": 1001,
      "\"]": 1002,
      "Ġfe": 1003,
      "ake": 1004,
      "ml": 1005,
      "ting": 1006,
      "01": 1007,
      "iew": 1008,
      "ier": 1009,
      "Ġed": 1010,
      "ob": 1011,
      "ures": 1012,
      "ĠRe": 1013,
      "Ġwhere": 1014,
      "Ġass": 1015,
      "Ġhelp": 1016,
      "ems": 1017,
      "Ġstring": 1018,
      "word": 1019,
      "Ġpass": 1020,
      "Ġstart": 1021,
      "feren": 1022,
      "ĠReturn": 1023,
      "ne": 1024,
      "comm": 1025,
      "Ġsystem": 1026,
      "Ġbetween": 1027,
      "ility": 1028,
      "ics": 1029,
      "Ġbu": 1030,
      "ble": 1031,
      "ger": 1032,
      "line": 1033,
      "Ġinform": 1034,
      "Ġcontain": 1035,
      "Ġpres": 1036,
      "io": 1037,
      "Ġprocess": 1038,
      "Ġ**": 1039,
      "oth": 1040,
      "].": 1041,
      "rite": 1042,
      "text": 1043,
      "array": 1044,
      "Ġread": 1045,
      "uring": 1046,
      "cent": 1047,
      "alth": 1048,
      "ough": 1049,
      "ible": 1050,
      "raph": 1051,
      "ins": 1052,
      "ĠHe": 1053,
      "ower": 1054,
      "Ġsur": 1055,
      "Ġeach": 1056,
      "Ġmany": 1057,
      "Ġline": 1058,
      "time": 1059,
      "ited": 1060,
      "Ġour": 1061,
      "ĠAr": 1062,
      "orld": 1063,
      "ng": 1064,
      "uc": 1065,
      "Ġwhat": 1066,
      "Ġclass": 1067,
      "ax": 1068,
      "dir": 1069,
      "num": 1070,
      "uct": 1071,
      "Ġcould": 1072,
      "very": 1073,
      "ands": 1074,
      "fl": 1075,
      "tag": 1076,
      "ĠDe": 1077,
      "...": 1078,
      "co": 1079,
      "ants": 1080,
      "ten": 1081,
      "Ġmin": 1082,
      "Ġsame": 1083,
      "Ġdat": 1084,
      "tt": 1085,
      "True": 1086,
      "Ġwater": 1087,
      "gan": 1088,
      "plit": 1089,
      "ename": 1090,
      "Ġ)": 1091,
      "Ġlike": 1092,
      "Ġindex": 1093,
      "hen": 1094,
      "class": 1095,
      "Ġresponse": 1096,
      "que": 1097,
      "Ġexp": 1098,
      "gen": 1099,
      "********": 1100,
      "size": 1101,
      "reg": 1102,
      "'t": 1103,
      "ĠFalse": 1104,
      "Ġcurrent": 1105,
      ".\"": 1106,
      "ader": 1107,
      "Ġmake": 1108,
      "atter": 1109,
      "ollow": 1110,
      "Ġconfig": 1111,
      "Ġos": 1112,
      "Ġmem": 1113,
      "Ġrequest": 1114,
      "Ġdec": 1115,
      "Ġyears": 1116,
      "False": 1117,
      "ted": 1118,
      "pre": 1119,
      "erg": 1120,
      "Ġart": 1121,
      "iet": 1122,
      "ases": 1123,
      "Ġthen": 1124,
      "Ġrequ": 1125,
      "cri": 1126,
      "Ġisinstance": 1127,
      "gth": 1128,
      "len": 1129,
      "Ġz": 1130,
      "start": 1131,
      "umn": 1132,
      "Ġafter": 1133,
      "ified": 1134,
      "air": 1135,
      "wn": 1136,
      "Ġ'''": 1137,
      "Ġtest": 1138,
      "Ġsm": 1139,
      "Ġmust": 1140,
      "string": 1141,
      "Ġprog": 1142,
      "Ġgiven": 1143,
      "ever": 1144,
      "Ġop": 1145,
      "ized": 1146,
      "kwargs": 1147,
      "Ġrese": 1148,
      "Ġ+=": 1149,
      "Ġcent": 1150,
      "Ġhigh": 1151,
      "other": 1152,
      "Ġvalues": 1153,
      "Ġfl": 1154,
      "Ġsign": 1155,
      "Ġdoes": 1156,
      "join": 1157,
      "ĠPro": 1158,
      "Ġref": 1159,
      "ister": 1160,
      "Ġrun": 1161,
      "ward": 1162,
      "raise": 1163,
      "--------": 1164,
      "ody": 1165,
      "ify": 1166,
      "Ġ/": 1167,
      "api": 1168,
      "man": 1169,
      "inal": 1170,
      "Ġdel": 1171,
      "Ġ{}": 1172,
      "St": 1173,
      "Ġent": 1174,
      "ons": 1175,
      "Ġfind": 1176,
      "Ġdefault": 1177,
      "uch": 1178,
      "Ġdist": 1179,
      "ĠEx": 1180,
      "ural": 1181,
      "loat": 1182,
      "Ġinv": 1183,
      "code": 1184,
      "Ġdirect": 1185,
      "ull": 1186,
      "Ġinformation": 1187,
      "ology": 1188,
      "map": 1189,
      "ps": 1190,
      "Ġlo": 1191,
      "Ġword": 1192,
      "Ġurl": 1193,
      "Ġwell": 1194,
      "Ġinclud": 1195,
      "config": 1196,
      "Ġsim": 1197,
      "Ġpub": 1198,
      "Ġback": 1199,
      "count": 1200,
      "Ġcontin": 1201,
      "uthor": 1202,
      "ination": 1203,
      "Ġfact": 1204,
      "Ġthose": 1205,
      "atus": 1206,
      "ired": 1207,
      "Th": 1208,
      "Ġgroup": 1209,
      "fun": 1210,
      "Ġmed": 1211,
      "ĠSe": 1212,
      "Ġusing": 1213,
      "ont": 1214,
      "Ġmet": 1215,
      "ily": 1216,
      "Ġrep": 1217,
      "ache": 1218,
      "ole": 1219,
      "ĠCom": 1220,
      "ds": 1221,
      "ĠAl": 1222,
      "ually": 1223,
      "led": 1224,
      "Ġincre": 1225,
      "quip": 1226,
      "Ġuser": 1227,
      "ĠReturns": 1228,
      "Ġdown": 1229,
      "##": 1230,
      "ON": 1231,
      "Ġtext": 1232,
      "Ġear": 1233,
      "yp": 1234,
      "meric": 1235,
      "ferent": 1236,
      "ID": 1237,
      "Ġcor": 1238,
      "Ġary": 1239,
      "Ġcontent": 1240,
      "Ġcell": 1241,
      "aram": 1242,
      "Ġfollow": 1243,
      "Ġlong": 1244,
      "Ġjust": 1245,
      "Ġright": 1246,
      "eb": 1247,
      "Ġeffect": 1248,
      "round": 1249,
      "Ġlevel": 1250,
      "ring": 1251,
      "iss": 1252,
      "Ġinst": 1253,
      "Ġ6": 1254,
      "itle": 1255,
      "Ġtem": 1256,
      "back": 1257,
      "ets": 1258,
      "ER": 1259,
      "Ġoc": 1260,
      "():": 1261,
      "Ġeven": 1262,
      "ĠX": 1263,
      ".__": 1264,
      "Ġident": 1265,
      "Ġinstance": 1266,
      "Ġprovid": 1267,
      "ey": 1268,
      "Ġbecause": 1269,
      "Ġwhile": 1270,
      "{}": 1271,
      "Ġenvironment": 1272,
      "ically": 1273,
      "Ġher": 1274,
      "Ġmodel": 1275,
      "ĠFor": 1276,
      "ism": 1277,
      "ov": 1278,
      "Ġav": 1279,
      "vern": 1280,
      "ĉĉ": 1281,
      "Num": 1282,
      "Ġlarg": 1283,
      "ĠĠĠĠĠ": 1284,
      "ered": 1285,
      "lan": 1286,
      "Ġì": 1287,
      "by": 1288,
      "Ġway": 1289,
      "Ġsaid": 1290,
      "attr": 1291,
      "Ġbel": 1292,
      "bug": 1293,
      "Ġdifferent": 1294,
      "Ġoutput": 1295,
      "ission": 1296,
      "Ġbefore": 1297,
      "node": 1298,
      "Ġmon": 1299,
      "essage": 1300,
      "obj": 1301,
      "Ġhand": 1302,
      "Ġ[]": 1303,
      "not": 1304,
      "Ġve": 1305,
      "ivers": 1306,
      "ries": 1307,
      "pper": 1308,
      "Ġhum": 1309,
      "ks": 1310,
      "sub": 1311,
      "ĠAmeric": 1312,
      "ives": 1313,
      "Ġsee": 1314,
      "Ġob": 1315,
      "var": 1316,
      "the": 1317,
      "Ġpers": 1318,
      "Ġ!": 1319,
      "Ġrange": 1320,
      "mp": 1321,
      "place": 1322,
      "\".": 1323,
      "for": 1324,
      "Ġworld": 1325,
      "Ġmax": 1326,
      "Ġca": 1327,
      "nc": 1328,
      "chn": 1329,
      "Ġoption": 1330,
      "Ġ18": 1331,
      "Ġbeing": 1332,
      "ĠĠĠĠĠĠĠĠĠĠĠĠĠĠĠĠĠĠĠĠĠĠĠĠĠĠĠ": 1333,
      "ging": 1334,
      "Ġallow": 1335,
      "Ġfail": 1336,
      "ential": 1337,
      "content": 1338,
      "Re": 1339,
      "ox": 1340,
      "Ġconn": 1341,
      "ah": 1342,
      "group": 1343,
      "Ġpartic": 1344,
      "ru": 1345,
      "iter": 1346,
      "np": 1347,
      "000": 1348,
      "raw": 1349,
      "ampl": 1350,
      "It": 1351,
      "bers": 1352,
      "sg": 1353,
      "Ġ@": 1354,
      "chool": 1355,
      "Ġresults": 1356,
      "ness": 1357,
      "ĠAs": 1358,
      "split": 1359,
      "Ġcheck": 1360,
      "lob": 1361,
      "li": 1362,
      "imes": 1363,
      "sp": 1364,
      "[:": 1365,
      "met": 1366,
      "amb": 1367,
      "Ġlab": 1368,
      "Ġgra": 1369,
      "Ġcommun": 1370,
      "Ġ!=": 1371,
      "ished": 1372,
      "Ġcode": 1373,
      "max": 1374,
      "Ġdisc": 1375,
      "ession": 1376,
      "Ġknow": 1377,
      "sw": 1378,
      "Ġpoint": 1379,
      "arm": 1380,
      "Ġexper": 1381,
      "Ġfam": 1382,
      "Ġagain": 1383,
      "ids": 1384,
      "Ġown": 1385,
      "Ġduring": 1386,
      "Ġparent": 1387,
      "user": 1388,
      "Ġvery": 1389,
      "Ġcomple": 1390,
      "json": 1391,
      "||": 1392,
      "Ġcour": 1393,
      "Ġproject": 1394,
      "Pr": 1395,
      "Ġest": 1396,
      "=\"": 1397,
      "pend": 1398,
      "Ġopen": 1399,
      "Ġ10": 1400,
      "Ġappro": 1401,
      "face": 1402,
      "lect": 1403,
      "ctions": 1404,
      "ather": 1405,
      "Ġshe": 1406,
      "Ġlast": 1407,
      "Ġreport": 1408,
      "ĠAn": 1409,
      "ote": 1410,
      "Ġshow": 1411,
      "ference": 1412,
      "ĠĠĠĠĠĠĠĠĠĠ": 1413,
      "ization": 1414,
      "alueError": 1415,
      "land": 1416,
      "Ġevery": 1417,
      "Ġhealth": 1418,
      "ĠĠĠĠĠĠĠĠĠ": 1419,
      "Ġaccess": 1420,
      "ince": 1421,
      "Ġarray": 1422,
      "Ġcommand": 1423,
      "ience": 1424,
      "anc": 1425,
      "arget": 1426,
      "opy": 1427,
      "//": 1428,
      "do": 1429,
      "me": 1430,
      "IN": 1431,
      "ĠInt": 1432,
      "ined": 1433,
      "Ġboth": 1434,
      "Ġlook": 1435,
      "ale": 1436,
      "Ġbre": 1437,
      "Ġobj": 1438,
      "Ġnode": 1439,
      ",\"": 1440,
      "75": 1441,
      "ait": 1442,
      "Ġap": 1443,
      "Ġcreate": 1444,
      "Ġchildren": 1445,
      "cription": 1446,
      "AT": 1447,
      "run": 1448,
      "Ġversion": 1449,
      "ven": 1450,
      "loc": 1451,
      "Ġtag": 1452,
      "Ġmuch": 1453,
      "Ġchar": 1454,
      "ision": 1455,
      "angu": 1456,
      "ared": 1457,
      "ves": 1458,
      "Ġsk": 1459,
      "Ġactiv": 1460,
      "Ġerror": 1461,
      "vert": 1462,
      "Ġ>>": 1463,
      ".\"\"\"": 1464,
      "Ġstate": 1465,
      "Ġvalid": 1466,
      "orth": 1467,
      "Ġ|": 1468,
      "ash": 1469,
      "Ġmat": 1470,
      "ĠValueError": 1471,
      "debug": 1472,
      "mit": 1473,
      "ionary": 1474,
      "ĠWh": 1475,
      "Ġ8": 1476,
      "Ġprot": 1477,
      "Ġhist": 1478,
      "mat": 1479,
      "Ġmain": 1480,
      "Ġnow": 1481,
      "Ġexample": 1482,
      "Ġter": 1483,
      "ected": 1484,
      "Ġlim": 1485,
      "Ġproble": 1486,
      "uration": 1487,
      "Ġ20": 1488,
      "alys": 1489,
      "Ġposs": 1490,
      "Ġmade": 1491,
      "Ġsupport": 1492,
      "ght": 1493,
      "lear": 1494,
      "ST": 1495,
      "ream": 1496,
      "Ġcar": 1497,
      "Ġproper": 1498,
      "Ġpop": 1499,
      "Ġhim": 1500,
      "OR": 1501,
      "Ġcalled": 1502,
      "Ġmy": 1503,
      "==": 1504,
      "][": 1505,
      "field": 1506,
      "Ġexist": 1507,
      "part": 1508,
      "Ġimportant": 1509,
      "ler": 1510,
      "uments": 1511,
      "response": 1512,
      "rip": 1513,
      "day": 1514,
      "ingle": 1515,
      "ration": 1516,
      "sert": 1517,
      "Ġgovern": 1518,
      "Ġtreat": 1519,
      "ref": 1520,
      "Ġsmall": 1521,
      "Ġresearch": 1522,
      ".,": 1523,
      "rol": 1524,
      "ches": 1525,
      "Ġtechn": 1526,
      "ĠThey": 1527,
      "ament": 1528,
      "Ġfloat": 1529,
      "Ġcondition": 1530,
      "result": 1531,
      "ĠRes": 1532,
      "iversity": 1533,
      "nal": 1534,
      "Ġprogram": 1535,
      "ner": 1536,
      "icle": 1537,
      "Ġorder": 1538,
      "Ġbas": 1539,
      "Ġgrow": 1540,
      "ĠAd": 1541,
      "ality": 1542,
      "ĠWe": 1543,
      "ĠNew": 1544,
      "olution": 1545,
      "ency": 1546,
      "Ġtak": 1547,
      "erest": 1548,
      "tok": 1549,
      "Ġ--": 1550,
      "Ġgre": 1551,
      "ML": 1552,
      "Ġsize": 1553,
      "Ġorgan": 1554,
      "ources": 1555,
      "err": 1556,
      "Ġpower": 1557,
      "ĠâĢĵ": 1558,
      "itor": 1559,
      "Ġ>>>": 1560,
      "ww": 1561,
      "write": 1562,
      "values": 1563,
      "ats": 1564,
      "Ġbl": 1565,
      "Ġ7": 1566,
      "ĠHow": 1567,
      "cher": 1568,
      "ules": 1569,
      "cord": 1570,
      "lab": 1571,
      "amp": 1572,
      "view": 1573,
      "Ġdoc": 1574,
      "Ġbo": 1575,
      "ribut": 1576,
      "Ġax": 1577,
      "Ġargs": 1578,
      "ergy": 1579,
      "uss": 1580,
      "Ġsearch": 1581,
      "uster": 1582,
      "12": 1583,
      "resent": 1584,
      "Ġtable": 1585,
      "Ġold": 1586,
      "Ġcommon": 1587,
      "://": 1588,
      "Ġoper": 1589,
      "umns": 1590,
      "Ġrow": 1591,
      "((": 1592,
      "Ġaw": 1593,
      "Ġorig": 1594,
      "ene": 1595,
      "Ġlife": 1596,
      "ury": 1597,
      "Ġinput": 1598,
      "19": 1599,
      "Ġ\\": 1600,
      "ifier": 1601,
      "ables": 1602,
      "from": 1603,
      "item": 1604,
      "arn": 1605,
      "oci": 1606,
      "ribute": 1607,
      "plo": 1608,
      "acter": 1609,
      "Ġevent": 1610,
      "fg": 1611,
      "Ġdet": 1612,
      "Ġthree": 1613,
      "Ġoccur": 1614,
      "aders": 1615,
      "Ġet": 1616,
      "Ġret": 1617,
      "cond": 1618,
      "Ġquery": 1619,
      "Ġrecord": 1620,
      "rel": 1621,
      "Ġplace": 1622,
      "request": 1623,
      "Ġinf": 1624,
      "Ġgood": 1625,
      "Ġlocal": 1626,
      "'):": 1627,
      "Ġchang": 1628,
      "ital": 1629,
      "default": 1630,
      "stit": 1631,
      "Ġnetwork": 1632,
      "ĠInd": 1633,
      "Ġplan": 1634,
      "ET": 1635,
      "Ġcase": 1636,
      "point": 1637,
      "54": 1638,
      "ccess": 1639,
      "new": 1640,
      "Ġpercent": 1641,
      "hip": 1642,
      "ĠIs": 1643,
      "Ġbody": 1644,
      "fe": 1645,
      "Ġgr": 1646,
      "Ġ->": 1647,
      "Ġdid": 1648,
      "ffic": 1649,
      "parent": 1650,
      "items": 1651,
      "Ġdise": 1652,
      "resh": 1653,
      "ges": 1654,
      "Ġ{'": 1655,
      "mb": 1656,
      "Ġless": 1657,
      "Ġland": 1658,
      "ailable": 1659,
      "Ġstudy": 1660,
      "ians": 1661,
      "object": 1662,
      "}'.": 1663,
      "amples": 1664,
      "inter": 1665,
      "tr": 1666,
      "Ġenc": 1667,
      "Ġsoc": 1668,
      "version": 1669,
      "Ġvari": 1670,
      "uple": 1671,
      "Ġlaw": 1672,
      "Ġwithout": 1673,
      "Ġcolumn": 1674,
      "Ġins": 1675,
      "adata": 1676,
      "til": 1677,
      "Ġmult": 1678,
      "Exception": 1679,
      "az": 1680,
      "ĠĠĠĠĠĠ": 1681,
      "Ġredu": 1682,
      "Ġsource": 1683,
      "sy": 1684,
      "ances": 1685,
      "ond": 1686,
      "Ġoften": 1687,
      "Ġparameters": 1688,
      "ES": 1689,
      "Ġstill": 1690,
      "ivid": 1691,
      "Ġinclude": 1692,
      "option": 1693,
      "NA": 1694,
      "tle": 1695,
      "ĠQ": 1696,
      "Ġsl": 1697,
      "Ġschool": 1698,
      "ense": 1699,
      "Ġstand": 1700,
      "ulation": 1701,
      "Ch": 1702,
      "ident": 1703,
      "stand": 1704,
      "Ġimage": 1705,
      "king": 1706,
      "here": 1707,
      "Ġcal": 1708,
      "icode": 1709,
      "omen": 1710,
      "lood": 1711,
      "())": 1712,
      "keys": 1713,
      "ĠJew": 1714,
      "shape": 1715,
      "Ġhuman": 1716,
      "anguage": 1717,
      "Ġ&": 1718,
      "Ġvis": 1719,
      "([": 1720,
      "ouse": 1721,
      "conom": 1722,
      "eral": 1723,
      "Ġpo": 1724,
      "Ġiss": 1725,
      "Ġ.": 1726,
      "Ġauthor": 1727,
      "This": 1728,
      "Ġwrit": 1729,
      "func": 1730,
      "Ġ201": 1731,
      "ertain": 1732,
      "Ġbet": 1733,
      "ĠSc": 1734,
      "Ġsom": 1735,
      "bu": 1736,
      "tes": 1737,
      "Ġdest": 1738,
      "fix": 1739,
      "ately": 1740,
      "Ġmatch": 1741,
      "Ġpresent": 1742,
      "table": 1743,
      "Con": 1744,
      "ii": 1745,
      "any": 1746,
      "Ġbuild": 1747,
      "Ġblock": 1748,
      "ĠčĊ": 1749,
      "ken": 1750,
      "itive": 1751,
      "Ġaddress": 1752,
      "Ġagainst": 1753,
      "Ġelect": 1754,
      "Ġmodule": 1755,
      "cer": 1756,
      "lish": 1757,
      "med": 1758,
      "Ġtake": 1759,
      "ements": 1760,
      "Ġaround": 1761,
      "Ġincluding": 1762,
      "Ġbool": 1763,
      "Ġperson": 1764,
      "âĢĶ": 1765,
      "ĠPh": 1766,
      "lobal": 1767,
      "orn": 1768,
      "Ġspe": 1769,
      "Ġgu": 1770,
      "oss": 1771,
      "Ġdesc": 1772,
      "Ġfollowing": 1773,
      "des": 1774,
      "Ġclo": 1775,
      "Ġ199": 1776,
      "be": 1777,
      "Ġpress": 1778,
      "outh": 1779,
      "apt": 1780,
      "Ġke": 1781,
      "vers": 1782,
      "lim": 1783,
      "Ġstruct": 1784,
      "ade": 1785,
      "Ġinterest": 1786,
      "Ġdesign": 1787,
      "rame": 1788,
      "ann": 1789,
      "ready": 1790,
      "ao": 1791,
      "lished": 1792,
      "ete": 1793,
      "ither": 1794,
      "Ġday": 1795,
      "Ġchange": 1796,
      "Ġfiles": 1797,
      "token": 1798,
      "Ġpublic": 1799,
      "Ġtyp": 1800,
      "Ġfood": 1801,
      ".âĢĿ": 1802,
      "Ġ9": 1803,
      "Ġlink": 1804,
      "Ġsingle": 1805,
      "ider": 1806,
      "ĠEn": 1807,
      "Ġimp": 1808,
      "EN": 1809,
      "Ġaut": 1810,
      "ploy": 1811,
      "jor": 1812,
      "Ġnext": 1813,
      "ross": 1814,
      "Ġsent": 1815,
      "Ġequ": 1816,
      "output": 1817,
      "Ġleg": 1818,
      "mission": 1819,
      "Ġlogging": 1820,
      "Ġknown": 1821,
      "ron": 1822,
      "iod": 1823,
      "Ġsw": 1824,
      "Ġstudents": 1825,
      "PI": 1826,
      "Ġmight": 1827,
      "number": 1828,
      "20": 1829,
      "},": 1830,
      "erate": 1831,
      "Ġsol": 1832,
      "Ġdem": 1833,
      "Ġsample": 1834,
      "Ġwithin": 1835,
      "plic": 1836,
      "Ġcontinue": 1837,
      "Ġfin": 1838,
      "Ġanother": 1839,
      "ĠThere": 1840,
      "Ġmove": 1841,
      "ĠBut": 1842,
      "find": 1843,
      "Ġsort": 1844,
      "Ġmark": 1845,
      "Ġlow": 1846,
      "imum": 1847,
      "aving": 1848,
      "::": 1849,
      "ium": 1850,
      "of": 1851,
      "rain": 1852,
      "less": 1853,
      "Ġnorm": 1854,
      "Ġgreat": 1855,
      "Ġris": 1856,
      "Ġgovernment": 1857,
      "Ġ--------": 1858,
      "unk": 1859,
      "ially": 1860,
      "ension": 1861,
      "Ġavailable": 1862,
      "Ġpat": 1863,
      "odes": 1864,
      "ived": 1865,
      "Ġleft": 1866,
      "ĠUniversity": 1867,
      "Ġmil": 1868,
      "ĠĠĠĠĠĠĠĠĠĠĠĠĠĠĠĠĠĠĠĠĠĠĠĠĠĠĠĠ": 1869,
      "iety": 1870,
      "lection": 1871,
      "Ġarea": 1872,
      "da": 1873,
      "11": 1874,
      "Wh": 1875,
      "Ġbest": 1876,
      "Ġdon": 1877,
      "cket": 1878,
      "aterial": 1879,
      "Ġtop": 1880,
      "my": 1881,
      "uro": 1882,
      "Ġcare": 1883,
      "oms": 1884,
      "eL": 1885,
      "arning": 1886,
      "Ġbased": 1887,
      "illion": 1888,
      "Ġmeas": 1889,
      "ĠCol": 1890,
      "iving": 1891,
      "Ġaddition": 1892,
      "Ġremain": 1893,
      "Ġsuccess": 1894,
      "ding": 1895,
      "tings": 1896,
      "Ġ15": 1897,
      "pped": 1898,
      "dl": 1899,
      "ĠZ": 1900,
      "Ġes": 1901,
      "Ġhere": 1902,
      "****************": 1903,
      "Ġcap": 1904,
      "ilar": 1905,
      "empt": 1906,
      "Ġrepresent": 1907,
      "Ġsel": 1908,
      "ordin": 1909,
      "Ġcontrol": 1910,
      "Ġdr": 1911,
      "Ġ...": 1912,
      "Ġthink": 1913,
      "Ġdatas": 1914,
      "vices": 1915,
      "Ġwant": 1916,
      "mask": 1917,
      "Ġbeg": 1918,
      "Ġdevelopment": 1919,
      "Ġnon": 1920,
      "Ġ>,": 1921,
      "ĠAmerican": 1922,
      "ral": 1923,
      "ression": 1924,
      "Ġcr": 1925,
      "Ġproduct": 1926,
      "Ġfew": 1927,
      "Ġpri": 1928,
      "Ġdi": 1929,
      "Ġtitle": 1930,
      "und": 1931,
      "Ġlarge": 1932,
      "block": 1933,
      "Ġtarget": 1934,
      "Ġalready": 1935,
      "ton": 1936,
      "ability": 1937,
      "use": 1938,
      "Ġmsg": 1939,
      "ĠID": 1940,
      "quence": 1941,
      "check": 1942,
      "filename": 1943,
      "oh": 1944,
      "Ġeconom": 1945,
      "Ġenergy": 1946,
      "msg": 1947,
      "AN": 1948,
      "reate": 1949,
      "atural": 1950,
      "Ġpost": 1951,
      "Ġnames": 1952,
      "ĠChr": 1953,
      "bs": 1954,
      "Ġdeter": 1955,
      "ĠĠĠĠĠĠĠĠĠĠĠĠĠĠĠĠĠĠĠĠĠĠĠĠĠĠĠĠĠĠĠ": 1956,
      "Ġconf": 1957,
      "aster": 1958,
      "(),": 1959,
      "filter": 1960,
      "rid": 1961,
      "Ġfore": 1962,
      "Ġspecific": 1963,
      "Type": 1964,
      "names": 1965,
      "module": 1966,
      "Ġsays": 1967,
      "Ġ'.": 1968,
      "ively": 1969,
      "Ġjson": 1970,
      "gs": 1971,
      "ties": 1972,
      "ero": 1973,
      "Ġview": 1974,
      "Ġmessage": 1975,
      "Ġstat": 1976,
      "Ġphys": 1977,
      "Ġload": 1978,
      "idth": 1979,
      "Ġelement": 1980,
      "olec": 1981,
      "dat": 1982,
      "Ġinit": 1983,
      "ĠAnd": 1984,
      "Ġspecies": 1985,
      "Ġstep": 1986,
      "indow": 1987,
      "eLife": 1988,
      ":`": 1989,
      "gest": 1990,
      "requ": 1991,
      "used": 1992,
      "Ġneg": 1993,
      "Ġappe": 1994,
      "PA": 1995,
      "7554": 1996,
      "Ġhtt": 1997,
      "Ġdisease": 1998,
      "auth": 1999,
      "ling": 2000,
      "Ġpot": 2001,
      "Ġperform": 2002,
      "Ġfull": 2003,
      "conn": 2004,
      "Ġdictionary": 2005,
      "Res": 2006,
      "Ġbase": 2007,
      "command": 2008,
      "header": 2009,
      "Ġpract": 2010,
      "rop": 2011,
      "Ġfilename": 2012,
      "rem": 2013,
      "Ġformat": 2014,
      "ways": 2015,
      "ctor": 2016,
      "quipament": 2017,
      "host": 2018,
      "root": 2019,
      "ored": 2020,
      "aps": 2021,
      "Param": 2022,
      "ised": 2023,
      "Ġmajor": 2024,
      "status": 2025,
      "ĠNetwork": 2026,
      "Ġcomb": 2027,
      "cording": 2028,
      "ences": 2029,
      "Ġitem": 2030,
      "ev": 2031,
      "order": 2032,
      "Ġeng": 2033,
      "ĠUnited": 2034,
      "18": 2035,
      "Ġparticular": 2036,
      "etime": 2037,
      "Ġapplic": 2038,
      "Ġcountry": 2039,
      "Ġanim": 2040,
      "Ġtoo": 2041,
      "Ġsever": 2042,
      "pected": 2043,
      "ason": 2044,
      "serv": 2045,
      "Ġposition": 2046,
      "Ġcells": 2047,
      "Ġstandard": 2048,
      "cul": 2049,
      "call": 2050,
      "Ġfac": 2051,
      "'])": 2052,
      "ĠXML": 2053,
      "Ġscient": 2054,
      "update": 2055,
      "Ġprovide": 2056,
      "Ġkwargs": 2057,
      "Ġroot": 2058,
      "no": 2059,
      "Ġide": 2060,
      "Ġtimes": 2061,
      "Ġbreak": 2062,
      "Ġ----": 2063,
      "ĠSh": 2064,
      "ĠParam": 2065,
      "Ġhig": 2066,
      "util": 2067,
      "river": 2068,
      "ched": 2069,
      "Ġpossible": 2070,
      "strip": 2071,
      "struct": 2072,
      "uri": 2073,
      "abase": 2074,
      "cle": 2075,
      "su": 2076,
      "vious": 2077,
      "network": 2078,
      "Ġfailed": 2079,
      "ĠCor": 2080,
      "ĠCent": 2081,
      "pping": 2082,
      "Ġmaterial": 2083,
      "âĢľ": 2084,
      "32": 2085,
      "Ġbook": 2086,
      "ises": 2087,
      "Ġlight": 2088,
      "Ġ12": 2089,
      "ĠOn": 2090,
      "ior": 2091,
      "Ġrece": 2092,
      "AL": 2093,
      "---": 2094,
      "ĠWhen": 2095,
      "Ġrad": 2096,
      "ĠHowever": 2097,
      "reen": 2098,
      "ently": 2099,
      "comp": 2100,
      "Ġservice": 2101,
      "sum": 2102,
      "Ġquest": 2103,
      "inc": 2104,
      "ĠCl": 2105,
      "Ġsecond": 2106,
      "Ġserver": 2107,
      "Ġfamily": 2108,
      "ought": 2109,
      "del": 2110,
      "Ġsit": 2111,
      "create": 2112,
      "ological": 2113,
      "Ġrequired": 2114,
      "Key": 2115,
      "SA": 2116,
      "alt": 2117,
      "Ġbeh": 2118,
      "Ġcomput": 2119,
      "ured": 2120,
      "flu": 2121,
      "ĠĠĠĠĠĠĠĠčĊ": 2122,
      "Ġtoken": 2123,
      "Ġred": 2124,
      "Ġunderstand": 2125,
      "yle": 2126,
      "ina": 2127,
      "Ġmask": 2128,
      "thon": 2129,
      "ĠThese": 2130,
      "Ġmean": 2131,
      "Ġeduc": 2132,
      "client": 2133,
      "ĠOr": 2134,
      "Ġindic": 2135,
      "Ġprovided": 2136,
      "ek": 2137,
      "Ġq": 2138,
      "Ġspecified": 2139,
      "fer": 2140,
      "ories": 2141,
      "osp": 2142,
      "ĠGod": 2143,
      "ires": 2144,
      "ock": 2145,
      "ĠTo": 2146,
      "####": 2147,
      "Ġkeep": 2148,
      "gc": 2149,
      "tain": 2150,
      "Ġlay": 2151,
      "imate": 2152,
      "Ġleast": 2153,
      "Ġsum": 2154,
      "Ġrest": 2155,
      "Ġcolor": 2156,
      "like": 2157,
      "ĠParameters": 2158,
      "base": 2159,
      "hes": 2160,
      "Ġyield": 2161,
      "cls": 2162,
      "Ġfields": 2163,
      "Ġnear": 2164,
      "Ġxml": 2165,
      "DE": 2166,
      "Ġtri": 2167,
      "Ġcertain": 2168,
      "Ġrespon": 2169,
      "Ġadv": 2170,
      "Ġbro": 2171,
      "Ġmar": 2172,
      "Ġ{\"": 2173,
      "Ġnumpy": 2174,
      "ividual": 2175,
      "Ġmode": 2176,
      "lease": 2177,
      "agn": 2178,
      "params": 2179,
      "Ġmanag": 2180,
      "idd": 2181,
      "address": 2182,
      "Ġparameter": 2183,
      "Ġcreated": 2184,
      "Ġtre": 2185,
      "Ġput": 2186,
      "plate": 2187,
      "Ġinvol": 2188,
      "ambda": 2189,
      "Ġseveral": 2190,
      "ead": 2191,
      "ining": 2192,
      "Ġopp": 2193,
      "ĠCan": 2194,
      "ember": 2195,
      ")))": 2196,
      "Ġuntil": 2197,
      "Ġplant": 2198,
      "register": 2199,
      "event": 2200,
      "Ġlength": 2201,
      "Ġsince": 2202,
      "alk": 2203,
      "ateg": 2204,
      "Ġwhether": 2205,
      "Ġstatus": 2206,
      "though": 2207,
      "ĠStates": 2208,
      "Ġamong": 2209,
      "Ġtask": 2210,
      "Ġ16": 2211,
      "right": 2212,
      "idence": 2213,
      "Ġbir": 2214,
      "Ġblood": 2215,
      "rapper": 2216,
      "Ġsug": 2217,
      "aces": 2218,
      "Ġsend": 2219,
      "Ġmus": 2220,
      "ĠAt": 2221,
      "html": 2222,
      "model": 2223,
      "ĠYou": 2224,
      "length": 2225,
      "Ġcourse": 2226,
      "Ġcult": 2227,
      "Ġpur": 2228,
      "Ġmeans": 2229,
      "aut": 2230,
      "Ġdescription": 2231,
      "/'": 2232,
      "pass": 2233,
      "Ġwords": 2234,
      "Ġmonth": 2235,
      "Ġtreatment": 2236,
      "Ġport": 2237,
      "Ġheader": 2238,
      "htt": 2239,
      "Ġcontaining": 2240,
      "quipamento": 2241,
      "action": 2242,
      "Ġwrite": 2243,
      "ended": 2244,
      "atic": 2245,
      "Ġearly": 2246,
      "Ġpressure": 2247,
      "Ġ----------": 2248,
      "Ġsay": 2249,
      "earch": 2250,
      "50": 2251,
      "Mdl": 2252,
      "Un": 2253,
      "Ġturn": 2254,
      "query": 2255,
      "Ġtot": 2256,
      "pth": 2257,
      "Ġareas": 2258,
      "Ġperiod": 2259,
      "ranch": 2260,
      "RL": 2261,
      "Ġpay": 2262,
      "Ġwomen": 2263,
      "Ġeither": 2264,
      "duct": 2265,
      "Ġassoci": 2266,
      "ze": 2267,
      "Ġlines": 2268,
      "().": 2269,
      "oy": 2270,
      "tem": 2271,
      "column": 2272,
      "Ġdirectory": 2273,
      "ĠChrist": 2274,
      ",âĢĿ": 2275,
      "ients": 2276,
      "por": 2277,
      "ving": 2278,
      "ume": 2279,
      "Ġplay": 2280,
      "Ġhost": 2281,
      "Ġprom": 2282,
      "ferences": 2283,
      "Ġlimit": 2284,
      "erc": 2285,
      "Pro": 2286,
      "ides": 2287,
      "verse": 2288,
      "30": 2289,
      "ering": 2290,
      "Ġsite": 2291,
      "Ġtemper": 2292,
      "chers": 2293,
      "eds": 2294,
      "ĠGen": 2295,
      "Ġbelie": 2296,
      "Ġdocument": 2297,
      "Reg": 2298,
      "heck": 2299,
      "idx": 2300,
      "ĠSy": 2301,
      "ĠNational": 2302,
      "andom": 2303,
      "'],": 2304,
      "200": 2305,
      "fet": 2306,
      "pace": 2307,
      "oding": 2308,
      ".')": 2309,
      "LE": 2310,
      "Ġ}": 2311,
      "Ġlogger": 2312,
      "ique": 2313,
      "Ġauth": 2314,
      "Ġpage": 2315,
      "iment": 2316,
      "ably": 2317,
      "Ġdiff": 2318,
      "RE": 2319,
      "ses": 2320,
      "ĠEng": 2321,
      "print": 2322,
      "with": 2323,
      "Ġfar": 2324,
      "Ġant": 2325,
      "Ġforce": 2326,
      "Ġpolit": 2327,
      "Ġmen": 2328,
      "Ġreal": 2329,
      "rie": 2330,
      "Ġregion": 2331,
      "oid": 2332,
      "ta": 2333,
      "Ġconst": 2334,
      "Ġspace": 2335,
      "Ġamount": 2336,
      "Ġsimilar": 2337,
      "hand": 2338,
      "Ġpix": 2339,
      "Ġshape": 2340,
      "Ġhistory": 2341,
      "16": 2342,
      "iation": 2343,
      "pri": 2344,
      "wh": 2345,
      "org": 2346,
      "Ġpain": 2347,
      "IT": 2348,
      "aim": 2349,
      "ators": 2350,
      "aly": 2351,
      "iple": 2352,
      "attern": 2353,
      "Ġhome": 2354,
      "fit": 2355,
      "lement": 2356,
      "init": 2357,
      "Ġdate": 2358,
      "over": 2359,
      "Ġlit": 2360,
      "Ġindividual": 2361,
      "]:": 2362,
      "Ġfit": 2363,
      "Ġsepar": 2364,
      "Ġinteg": 2365,
      "Ġabove": 2366,
      "ĠInvalid": 2367,
      "Ġcharacter": 2368,
      "15": 2369,
      "Ġvol": 2370,
      "ĠMed": 2371,
      "Ġlead": 2372,
      "urope": 2373,
      "Ġfour": 2374,
      "ĠĠĠĠčĊ": 2375,
      "Ġlanguage": 2376,
      "Ġexpl": 2377,
      "Ġwar": 2378,
      "Ġhard": 2379,
      "swith": 2380,
      "Ġaffect": 2381,
      "process": 2382,
      "Ġbetter": 2383,
      "Ġimpro": 2384,
      "Ġ['": 2385,
      "reads": 2386,
      "ification": 2387,
      "Ġair": 2388,
      "Ġpack": 2389,
      "Ġ17": 2390,
      "Ġsuper": 2391,
      "ĠUser": 2392,
      "ĠâĢĶ": 2393,
      "Item": 2394,
      "Ġcause": 2395,
      "urther": 2396,
      "Ġbecome": 2397,
      "Ġclear": 2398,
      "md": 2399,
      "ĠĠĠĠĠĠĠĠĠĠĠĠĠĠĠĠĠ": 2400,
      "Ġassert": 2401,
      "Ġlik": 2402,
      "Ġcountries": 2403,
      "9999": 2404,
      "Ġdescrib": 2405,
      "Ġtuple": 2406,
      "Ġmot": 2407,
      "aper": 2408,
      "ights": 2409,
      "Ġsocial": 2410,
      "range": 2411,
      "ones": 2412,
      "Ġbus": 2413,
      "Ġsubject": 2414,
      "condition": 2415,
      "posed": 2416,
      "mon": 2417,
      "sample": 2418,
      "curity": 2419,
      "wise": 2420,
      "íĺ": 2421,
      "Ġcases": 2422,
      "Ġpy": 2423,
      "Ġlater": 2424,
      "ĠAc": 2425,
      "Ġdataset": 2426,
      "rag": 2427,
      "ĠDef": 2428,
      "sed": 2429,
      "Ġbi": 2430,
      "une": 2431,
      "ĠAll": 2432,
      "ills": 2433,
      "ublic": 2434,
      "Ġconnection": 2435,
      "Ġcopy": 2436,
      "bar": 2437,
      "ret": 2438,
      "Ġable": 2439,
      "Ġobjects": 2440,
      "Ġcentury": 2441,
      "Ġhttp": 2442,
      "off": 2443,
      "Ġeas": 2444,
      "Ġproblem": 2445,
      "Ġgreater": 2446,
      "Ġchanges": 2447,
      "gt": 2448,
      "atures": 2449,
      "ump": 2450,
      "Ġ198": 2451,
      "match": 2452,
      "rt": 2453,
      "Ġaction": 2454,
      "Ġhapp": 2455,
      "Ġspecial": 2456,
      "eting": 2457,
      "Ġnecess": 2458,
      "Ġestab": 2459,
      "Ġbegin": 2460,
      "IP": 2461,
      "doc": 2462,
      "Ġcrit": 2463,
      "Ġfree": 2464,
      "level": 2465,
      "Ġthings": 2466,
      "Ġdatabase": 2467,
      "Ġsys": 2468,
      "ison": 2469,
      "Ġprevent": 2470,
      "rad": 2471,
      "Ġstop": 2472,
      "Ġrisk": 2473,
      "isc": 2474,
      "alf": 2475,
      "parse": 2476,
      "rap": 2477,
      "ĠAct": 2478,
      "Ġexc": 2479,
      "Ġabs": 2480,
      ".\")": 2481,
      "Ġfall": 2482,
      "Ġanalys": 2483,
      "older": 2484,
      "Ġshort": 2485,
      "queue": 2486,
      "17": 2487,
      "AR": 2488,
      "spec": 2489,
      "Ġip": 2490,
      "Ġdri": 2491,
      "Ġnatural": 2492,
      "ustom": 2493,
      "Ġdom": 2494,
      "Ġreturned": 2495,
      "Ġtotal": 2496,
      "ware": 2497,
      "replace": 2498,
      "Ġcost": 2499,
      "Ġcache": 2500,
      "ĠData": 2501,
      "Ġhead": 2502,
      "Ġothers": 2503,
      "Ġtimeout": 2504,
      "Ġge": 2505,
      "Ġ100": 2506,
      "ĠGet": 2507,
      "ĠVal": 2508,
      ")]": 2509,
      "dom": 2510,
      "oad": 2511,
      "Ġast": 2512,
      "ĠList": 2513,
      "Ġcommunity": 2514,
      "ik": 2515,
      "eros": 2516,
      "title": 2517,
      "ication": 2518,
      "ift": 2519,
      "lower": 2520,
      "Ġrev": 2521,
      "Ġ14": 2522,
      "ĠPl": 2523,
      "ĠEurope": 2524,
      "ails": 2525,
      "Ġ-------": 2526,
      "df": 2527,
      "most": 2528,
      "Ġglobal": 2529,
      "rix": 2530,
      "ript": 2531,
      "Ġexec": 2532,
      "Ġcolumns": 2533,
      "Ġrequire": 2534,
      "lines": 2535,
      "Ġdone": 2536,
      "ots": 2537,
      "Ġgraph": 2538,
      "âĢĵ": 2539,
      "plement": 2540,
      "work": 2541,
      "Ġsche": 2542,
      "Ġoptions": 2543,
      "Ġsix": 2544,
      "Ġhy": 2545,
      "Ġkind": 2546,
      "Ġdue": 2547,
      "ĠIm": 2548,
      "acher": 2549,
      "iness": 2550,
      "uses": 2551,
      "Ġclient": 2552,
      "Ġgene": 2553,
      "Ġidentifier": 2554,
      "pes": 2555,
      "Ġmillion": 2556,
      "ĠCreate": 2557,
      "ĠRun": 2558,
      "Ġí": 2559,
      "service": 2560,
      "As": 2561,
      "exception": 2562,
      "Ġarguments": 2563,
      "Ġsignific": 2564,
      "cs": 2565,
      "ends": 2566,
      "Ġlearn": 2567,
      "Ġarticle": 2568,
      "Ġtypes": 2569,
      "14": 2570,
      "db": 2571,
      "Ġprob": 2572,
      "Ġnever": 2573,
      "ä¸": 2574,
      "rect": 2575,
      "ograph": 2576,
      "Ġraw": 2577,
      "Ġneeded": 2578,
      "[-": 2579,
      "Ġexception": 2580,
      "ĠGer": 2581,
      "Ġargument": 2582,
      "ention": 2583,
      "search": 2584,
      "Ġremove": 2585,
      "ĠĠĠĠĠĠĠĠĠĠĠĠĠĠ": 2586,
      "Ġvir": 2587,
      "ĠEd": 2588,
      "cret": 2589,
      "Ġ30": 2590,
      "Ġlevels": 2591,
      "Ġproblems": 2592,
      "ope": 2593,
      "pi": 2594,
      "Ġann": 2595,
      "Ġla": 2596,
      "ogn": 2597,
      "Ġparams": 2598,
      "label": 2599,
      "Ġpotential": 2600,
      "An": 2601,
      "oph": 2602,
      "open": 2603,
      "ains": 2604,
      "Ġprim": 2605,
      "Ġextra": 2606,
      "Ġinvalid": 2607,
      "Ġang": 2608,
      "ĠSer": 2609,
      "dd": 2610,
      "Ġpast": 2611,
      "omet": 2612,
      "Ġdepend": 2613,
      "bose": 2614,
      "fact": 2615,
      "oot": 2616,
      "Ġinc": 2617,
      "ilities": 2618,
      "ĠNorth": 2619,
      "Ġneeds": 2620,
      "we": 2621,
      "uture": 2622,
      "Ġcls": 2623,
      "Ġhowever": 2624,
      "Ġnormal": 2625,
      "CT": 2626,
      "SE": 2627,
      "We": 2628,
      "down": 2629,
      "Ġbene": 2630,
      "verage": 2631,
      "Ġprof": 2632,
      "ours": 2633,
      "ĠâĢĺ": 2634,
      "Ġemploy": 2635,
      "ĠCont": 2636,
      "ustr": 2637,
      "ilt": 2638,
      "Ġparser": 2639,
      "quipment": 2640,
      "clo": 2641,
      "orator": 2642,
      "Ġalways": 2643,
      "parser": 2644,
      "Ġjob": 2645,
      "Ġconsider": 2646,
      "`.": 2647,
      "gr": 2648,
      "input": 2649,
      "ething": 2650,
      "Ġoffic": 2651,
      "[:,": 2652,
      "/%": 2653,
      "Ġrout": 2654,
      "ĠEar": 2655,
      "Ġelements": 2656,
      "ĠLe": 2657,
      "ibr": 2658,
      "Ġrelations": 2659,
      "mt": 2660,
      "message": 2661,
      "ĠIP": 2662,
      "Ġgl": 2663,
      "Ġevents": 2664,
      "Ġmembers": 2665,
      "Ġvec": 2666,
      "Ġsuggest": 2667,
      "cos": 2668,
      "yn": 2669,
      "Ġcle": 2670,
      "depend": 2671,
      "Ġreturns": 2672,
      "Ġcome": 2673,
      "Ġcluster": 2674,
      "aves": 2675,
      "Ġparts": 2676,
      "Ġtim": 2677,
      "Ġlower": 2678,
      "Ġvert": 2679,
      "Ġconditions": 2680,
      "Return": 2681,
      "post": 2682,
      "test": 2683,
      "Ġ$": 2684,
      "Ġhaving": 2685,
      "Ġrights": 2686,
      "Ġoil": 2687,
      "nder": 2688,
      "graph": 2689,
      "ius": 2690,
      "rtype": 2691,
      "Ġbig": 2692,
      "Ġ('": 2693,
      "Ġcho": 2694,
      "Ġplants": 2695,
      "Ġmolec": 2696,
      "Ġlabel": 2697,
      "Ġstructure": 2698,
      "now": 2699,
      "Ġsun": 2700,
      "body": 2701,
      "cy": 2702,
      "mine": 2703,
      "ront": 2704,
      "ued": 2705,
      "Ġfig": 2706,
      "ank": 2707,
      "analys": 2708,
      "etic": 2709,
      "ĠCal": 2710,
      "thing": 2711,
      "Ġsurface": 2712,
      "Prf": 2713,
      "Parameter": 2714,
      "Ġhigher": 2715,
      "atory": 2716,
      "image": 2717,
      "istype": 2718,
      "istry": 2719,
      "Ġvarious": 2720,
      "asing": 2721,
      "Ġ13": 2722,
      "Ġsequence": 2723,
      "Ġworking": 2724,
      "prefix": 2725,
      "Al": 2726,
      "ground": 2727,
      "Ġdig": 2728,
      "unicode": 2729,
      "Ġprote": 2730,
      "Ġupdate": 2731,
      "(*": 2732,
      "ane": 2733,
      "ivil": 2734,
      "Ġcancer": 2735,
      "Ġlittle": 2736,
      "kes": 2737,
      "mark": 2738,
      "rc": 2739,
      "erve": 2740,
      "Ġfilter": 2741,
      "cript": 2742,
      "Ġlikely": 2743,
      "If": 2744,
      "bool": 2745,
      "Ġcannot": 2746,
      "Not": 2747,
      "Ġside": 2748,
      "Ġsession": 2749,
      "Ġlat": 2750,
      "ush": 2751,
      "hern": 2752,
      "Ġusually": 2753,
      "Ġregister": 2754,
      "Ġcoordin": 2755,
      "Ġ50": 2756,
      "trans": 2757,
      "Com": 2758,
      "sing": 2759,
      "ournal": 2760,
      "Ġaccept": 2761,
      "dered": 2762,
      "ached": 2763,
      "source": 2764,
      "asc": 2765,
      "There": 2766,
      "pha": 2767,
      "Ġchem": 2768,
      "Ġpolic": 2769,
      "Ġill": 2770,
      "Ġage": 2771,
      "Ġgeneral": 2772,
      "Ġgenerate": 2773,
      "ections": 2774,
      "Ġalong": 2775,
      "ards": 2776,
      "Ġpassed": 2777,
      "ributes": 2778,
      "ĠEnvironment": 2779,
      "File": 2780,
      "Ã©": 2781,
      "ffer": 2782,
      "Par": 2783,
      "mpt": 2784,
      "stru": 2785,
      "Ġcommit": 2786,
      "let": 2787,
      "Ġalter": 2788,
      "Ġdecl": 2789,
      "13": 2790,
      "25": 2791,
      "float": 2792,
      "side": 2793,
      "Ġstream": 2794,
      "ortun": 2795,
      "ledge": 2796,
      "Ġpopulation": 2797,
      "fficient": 2798,
      "Ġincrease": 2799,
      "Ġworks": 2800,
      "Ġrelated": 2801,
      "Ġmemory": 2802,
      "====": 2803,
      "state": 2804,
      "vention": 2805,
      "Ġprogress": 2806,
      "nown": 2807,
      "ĠSet": 2808,
      "Ġdeath": 2809,
      "ĠWhat": 2810,
      "Ġsomething": 2811,
      "Ġmap": 2812,
      "Ġtoget": 2813,
      "Ġdeg": 2814,
      "ivity": 2815,
      "ips": 2816,
      "ĠGe": 2817,
      "Ġintern": 2818,
      "columns": 2819,
      "Ġresear": 2820,
      "ĠIntern": 2821,
      "Ġtogether": 2822,
      "For": 2823,
      "lied": 2824,
      "Ġsex": 2825,
      "Ġthought": 2826,
      "ott": 2827,
      "istic": 2828,
      "ĠSo": 2829,
      "ĠSome": 2830,
      "ĠPol": 2831,
      "ĠComm": 2832,
      "Ġeffects": 2833,
      "icult": 2834,
      "Ġonce": 2835,
      "inary": 2836,
      "amed": 2837,
      "abit": 2838,
      "af": 2839,
      "Ġdownload": 2840,
      "]))": 2841,
      "Ġaccount": 2842,
      "Ġsens": 2843,
      "Ġmass": 2844,
      "position": 2845,
      "iff": 2846,
      "ĠCorp": 2847,
      "ĠDefault": 2848,
      "cfg": 2849,
      "Ġsection": 2850,
      "aries": 2851,
      "aml": 2852,
      "ĠBe": 2853,
      "Ġeconomic": 2854,
      "201": 2855,
      "Ġweb": 2856,
      "Ġmethods": 2857,
      "Ġbelow": 2858,
      "meta": 2859,
      "Ġaway": 2860,
      "uid": 2861,
      "ĠPer": 2862,
      "Ġitems": 2863,
      "exp": 2864,
      "ĠHis": 2865,
      "Ġstrong": 2866,
      "pecially": 2867,
      "Ġactivity": 2868,
      "Ġimpact": 2869,
      "Val": 2870,
      "ai": 2871,
      "Ġdays": 2872,
      "icro": 2873,
      "Ġground": 2874,
      "ĠJoh": 2875,
      "Ġsystems": 2876,
      "ĠInvalidParameter": 2877,
      "ĠInvalidParameterError": 2878,
      "bit": 2879,
      "elves": 2880,
      "Ġitself": 2881,
      "Ġseen": 2882,
      "Ġenough": 2883,
      "Ġexisting": 2884,
      "www": 2885,
      "analysistype": 2886,
      "\"):": 2887,
      "lib": 2888,
      "sq": 2889,
      "Ġtree": 2890,
      "Ġfurther": 2891,
      "ĠType": 2892,
      "acy": 2893,
      "ibility": 2894,
      "Ġprevious": 2895,
      "Ġrole": 2896,
      "opt": 2897,
      "Ġ..": 2898,
      "aters": 2899,
      "Ġgive": 2900,
      "Ġsure": 2901,
      "pack": 2902,
      "Ġfoc": 2903,
      "Ġexcl": 2904,
      "Ġwhole": 2905,
      "Ġgroups": 2906,
      "TP": 2907,
      "way": 2908,
      "aring": 2909,
      "Ġresources": 2910,
      "ĠGo": 2911,
      "Ġoriginal": 2912,
      "xt": 2913,
      "Ġtoday": 2914,
      "ĠBrit": 2915,
      "Ġactivities": 2916,
      "author": 2917,
      "Ġrather": 2918,
      "types": 2919,
      "Ġcontains": 2920,
      "Ġmetadata": 2921,
      "iddle": 2922,
      "ME": 2923,
      "cache": 2924,
      "rf": 2925,
      "ëĭ": 2926,
      "ele": 2927,
      "ĠFl": 2928,
      "ION": 2929,
      "link": 2930,
      "Ġ25": 2931,
      "Ġacc": 2932,
      "aking": 2933,
      "Ar": 2934,
      "Ġign": 2935,
      "itude": 2936,
      "ada": 2937,
      "istance": 2938,
      "ĠBy": 2939,
      "Ġstudies": 2940,
      "ĠJewish": 2941,
      "Ġsignificant": 2942,
      "Name": 2943,
      "mber": 2944,
      "oved": 2945,
      "ë²": 2946,
      "ites": 2947,
      "logger": 2948,
      "Base": 2949,
      "copy": 2950,
      "rans": 2951,
      "aced": 2952,
      "ĠOne": 2953,
      "Ġscan": 2954,
      "Ġevidence": 2955,
      "current": 2956,
      "Ġbecame": 2957,
      "fields": 2958,
      "Ġpolitical": 2959,
      "Get": 2960,
      "SS": 2961,
      "norm": 2962,
      "ux": 2963,
      "ym": 2964,
      "rep": 2965,
      "rodu": 2966,
      "ĠMus": 2967,
      "ival": 2968,
      "words": 2969,
      "ë²Ī": 2970,
      "last": 2971,
      "roll": 2972,
      "ĠAss": 2973,
      "Ġcompon": 2974,
      "ĠArgs": 2975,
      "Ġtaken": 2976,
      "íĺ¸": 2977,
      "Data": 2978,
      "ìĦ": 2979,
      "Tmp": 2980,
      "where": 2981,
      "Ġinflu": 2982,
      "iente": 2983,
      "Ġsoft": 2984,
      "ë²Īíĺ¸": 2985,
      "dout": 2986,
      "Ġmut": 2987,
      "Ġeff": 2988,
      "Ġens": 2989,
      "Ġterm": 2990,
      "Ġtechnology": 2991,
      "What": 2992,
      "Ġespecially": 2993,
      "ĠNetworkapi": 2994,
      "Ġeducation": 2995,
      "Ġwait": 2996,
      "Ġlst": 2997,
      "utes": 2998,
      "color": 2999,
      "Ġocc": 3000,
      "Ġtemperature": 3001,
      "ederal": 3002,
      "ĠĠĠĠĠĠĠĠĠĠĠĠĠĠĠĠĠĠĠĠĠĠĠĠĠĠ": 3003,
      "tags": 3004,
      "Ġinstead": 3005,
      "Ġnecessary": 3006,
      "Path": 3007,
      "hib": 3008,
      "sche": 3009,
      "ĺì": 3010,
      "Ġexists": 3011,
      "Ġupon": 3012,
      "irection": 3013,
      "Ġmodels": 3014,
      "Cont": 3015,
      "Tc": 3016,
      "ee": 3017,
      "element": 3018,
      "unc": 3019,
      "ung": 3020,
      "ĠMar": 3021,
      "send": 3022,
      "ising": 3023,
      "lex": 3024,
      "cho": 3025,
      "ĠWar": 3026,
      "Ġcontext": 3027,
      "valu": 3028,
      "Ġgoing": 3029,
      "Ġtrace": 3030,
      "ĠException": 3031,
      "OC": 3032,
      "bed": 3033,
      "cing": 3034,
      "})": 3035,
      "environment": 3036,
      "Ġfuture": 3037,
      "Ġhit": 3038,
      "Ġep": 3039,
      "Ġnumbers": 3040,
      "Ġconfiguration": 3041,
      "Ġrequests": 3042,
      "startswith": 3043,
      "Ġcomplex": 3044,
      "Ġwindow": 3045,
      "ĠAf": 3046,
      "ĠCD": 3047,
      "ĠDr": 3048,
      "Ġproduction": 3049,
      "Ġdeveloped": 3050,
      "direct": 3051,
      "iol": 3052,
      "sign": 3053,
      "atives": 3054,
      "Ġwhy": 3055,
      "conds": 3056,
      "Ġimplement": 3057,
      "Ġenum": 3058,
      "Ġlocation": 3059,
      "Ġfactor": 3060,
      "Ġphysical": 3061,
      "'))": 3062,
      "AC": 3063,
      "IC": 3064,
      "method": 3065,
      "Ġfish": 3066,
      "Ġresource": 3067,
      "OD": 3068,
      "tree": 3069,
      "zeros": 3070,
      "Ġhalf": 3071,
      "ols": 3072,
      "conf": 3073,
      "Ġimm": 3074,
      "idered": 3075,
      "ĠJews": 3076,
      "Ġassociated": 3077,
      "UT": 3078,
      "respon": 3079,
      "ained": 3080,
      "play": 3081,
      "Ġapplication": 3082,
      "Ġfive": 3083,
      "Ġreplace": 3084,
      "ird": 3085,
      "ĠMod": 3086,
      "ĠPop": 3087,
      "ĠDict": 3088,
      "rought": 3089,
      "Ġacross": 3090,
      "ĠKey": 3091,
      "Ġconsidered": 3092,
      "Ġincreased": 3093,
      "metadata": 3094,
      "stitute": 3095,
      "Ġcir": 3096,
      "Ġiter": 3097,
      "Ġbasic": 3098,
      "Cl": 3099,
      "ĠAb": 3100,
      "Ġanimals": 3101,
      "Ġdifficult": 3102,
      "RF": 3103,
      "Ġ\"\"": 3104,
      "rest": 3105,
      "Ġways": 3106,
      "Ġbit": 3107,
      "Ġreally": 3108,
      "ĠSoc": 3109,
      "ĠURL": 3110,
      "Ġaccording": 3111,
      "ĠThat": 3112,
      "Ġemail": 3113,
      "Ġpriv": 3114,
      "Int": 3115,
      "icles": 3116,
      "ĠMin": 3117,
      "Ġlet": 3118,
      "Ġgrowth": 3119,
      "Ġanalysis": 3120,
      "ĠGerman": 3121,
      "rs": 3122,
      "sort": 3123,
      "ector": 3124,
      "Ġoptional": 3125,
      "ĠAdd": 3126,
      "ĠCorpNum": 3127,
      "ìŀ": 3128,
      "Ġcustom": 3129,
      "Ġfrequ": 3130,
      "Ġwild": 3131,
      "lying": 3132,
      "ĠĠĠĠĠĠĠĠĠĠĠĠĠĠĠĠĠĠĠĠ": 3133,
      "ĠWest": 3134,
      "Ġweight": 3135,
      "Ġtradition": 3136,
      "Ġproducts": 3137,
      "bon": 3138,
      "Ġopt": 3139,
      "ĠPr": 3140,
      "exec": 3141,
      "upo": 3142,
      "Ġrecent": 3143,
      "Ġinvest": 3144,
      "ĠSee": 3145,
      "ĠEarth": 3146,
      "Ġeffort": 3147,
      "64": 3148,
      "UN": 3149,
      "dis": 3150,
      "ged": 3151,
      "ĠII": 3152,
      "Ġdevice": 3153,
      "Ġattribute": 3154,
      "Ġissue": 3155,
      "]]": 3156,
      "div": 3157,
      "gram": 3158,
      "Ġbr": 3159,
      "Ġnational": 3160,
      "Ġentire": 3161,
      "Ġmaximum": 3162,
      "ĠResearch": 3163,
      "Ġvariable": 3164,
      "Ġadditional": 3165,
      ")):": 3166,
      "PO": 3167,
      "Ġir": 3168,
      "Ġsave": 3169,
      "Ġthough": 3170,
      "ulations": 3171,
      "ĠĠĠĠĠĠĠĠĠĠĠĠĠĠĠĠĠĠĠĠĠ": 3172,
      "Ġpublished": 3173,
      "olean": 3174,
      ".)": 3175,
      "Ġtax": 3176,
      "Ġframe": 3177,
      "ĠWorld": 3178,
      "Ġmaking": 3179,
      "overed": 3180,
      "ĠYork": 3181,
      "ORD": 3182,
      "http": 3183,
      "ias": 3184,
      "net": 3185,
      "ley": 3186,
      "Ġexpected": 3187,
      "ĠNot": 3188,
      "Ġcollection": 3189,
      "Ġattempt": 3190,
      "Ġphot": 3191,
      "Ġparticip": 3192,
      "Ġknowledge": 3193,
      "ae": 3194,
      "oes": 3195,
      "Ġsqu": 3196,
      "Ġcreat": 3197,
      "mselves": 3198,
      "List": 3199,
      "MA": 3200,
      "yl": 3201,
      "Ġthemselves": 3202,
      "Ġhom": 3203,
      "Ġyet": 3204,
      "ressed": 3205,
      "Ġinstall": 3206,
      "medi": 3207,
      "depth": 3208,
      "Ġey": 3209,
      "ĠApp": 3210,
      "Ġrandom": 3211,
      "Ġclaim": 3212,
      "Ġproperty": 3213,
      "ters": 3214,
      "£o": 3215,
      "Ã£o": 3216,
      "Ġstri": 3217,
      "files": 3218,
      "fully": 3219,
      "Ġmultiple": 3220,
      "ned": 3221,
      "Ġdtype": 3222,
      "stream": 3223,
      "Ġfamil": 3224,
      "Ġclose": 3225,
      "Ġsorted": 3226,
      "Ġdrug": 3227,
      "Ġresearchers": 3228,
      "Ġenumerate": 3229,
      "De": 3230,
      "uck": 3231,
      "Ġcut": 3232,
      "Ġhouse": 3233,
      "ĠCenter": 3234,
      "'re": 3235,
      "60": 3236,
      "{'": 3237,
      "inition": 3238,
      "Ġdam": 3239,
      "seq": 3240,
      "izing": 3241,
      "Ġregist": 3242,
      "Ġempt": 3243,
      "Ġtransl": 3244,
      "ĠHealth": 3245,
      "Ġengine": 3246,
      "password": 3247,
      "bo": 3248,
      "het": 3249,
      "Ġask": 3250,
      "Ġheaders": 3251,
      "Ġmakes": 3252,
      "Ġfunc": 3253,
      "Ġpoints": 3254,
      "Ġtags": 3255,
      "Ġmeasure": 3256,
      "lambda": 3257,
      "vlan": 3258,
      "oman": 3259,
      "aching": 3260,
      "Ġfeel": 3261,
      "issing": 3262,
      "Ġaxis": 3263,
      "22": 3264,
      "hist": 3265,
      "known": 3266,
      "Ã¡": 3267,
      "ï¼": 3268,
      "Ġloss": 3269,
      "Ġ11": 3270,
      "ĠPy": 3271,
      "Ġseries": 3272,
      "wards": 3273,
      "To": 3274,
      "cal": 3275,
      "Ġcou": 3276,
      "ental": 3277,
      "Ġgas": 3278,
      "ĠMay": 3279,
      "Ġlearning": 3280,
      "``,": 3281,
      "Ġtrack": 3282,
      "Ġzero": 3283,
      "Ġprovides": 3284,
      "partment": 3285,
      "Ġvisit": 3286,
      "tra": 3287,
      "illed": 3288,
      "Ġarch": 3289,
      "acters": 3290,
      "options": 3291,
      "dent": 3292,
      "sl": 3293,
      "Ġtrue": 3294,
      "ened": 3295,
      "Ġansw": 3296,
      "Ġreason": 3297,
      "Ġliving": 3298,
      "ĠCar": 3299,
      "Ġadded": 3300,
      "gener": 3301,
      "ĠAmerica": 3302,
      "Ġproperties": 3303,
      "Ġblack": 3304,
      "Ġbehav": 3305,
      "No": 3306,
      "chie": 3307,
      "ending": 3308,
      "Ġservices": 3309,
      "Ġparents": 3310,
      "vip": 3311,
      "Ġcity": 3312,
      "itary": 3313,
      "ĠCheck": 3314,
      "Ġreduce": 3315,
      "bill": 3316,
      "Ġflow": 3317,
      "Ġlive": 3318,
      "Ġhold": 3319,
      "ribution": 3320,
      "Ġkeys": 3321,
      "Ġrecogn": 3322,
      "ipp": 3323,
      "Ġess": 3324,
      "Ġcit": 3325,
      "leep": 3326,
      "icine": 3327,
      "Ġrele": 3328,
      "utf": 3329,
      "ĠNo": 3330,
      "Ġjoin": 3331,
      "Ġcollect": 3332,
      "Ġtraining": 3333,
      "Ġactually": 3334,
      "Ġetc": 3335,
      "Ġpattern": 3336,
      "Ġdiv": 3337,
      "project": 3338,
      "ighb": 3339,
      "Ġavoid": 3340,
      "(-": 3341,
      "40": 3342,
      "case": 3343,
      "dated": 3344,
      "Ġur": 3345,
      "Ġtell": 3346,
      "dec": 3347,
      "ĠĠĠĠĠĠĠĠĠĠĠĠĠĠĠĠĠĠĠĠĠĠĠĠĠĠĠĠĠĠĠĠĠĠĠ": 3348,
      "ender": 3349,
      "Ġweek": 3350,
      "gtKey": 3351,
      "Found": 3352,
      "rate": 3353,
      "ìĿ": 3354,
      "imension": 3355,
      "Ġmodern": 3356,
      "Ġ__": 3357,
      "Ġsimple": 3358,
      "Ġissues": 3359,
      "Ġchemical": 3360,
      "ls": 3361,
      "head": 3362,
      "ĠTe": 3363,
      "using": 3364,
      "Ġcorrect": 3365,
      "hing": 3366,
      "ĠSp": 3367,
      "ĠState": 3368,
      "validate": 3369,
      "Ġmedical": 3370,
      "ING": 3371,
      "ĠEnglish": 3372,
      "bre": 3373,
      "year": 3374,
      "section": 3375,
      "Ġprotect": 3376,
      "Ġinitial": 3377,
      "hit": 3378,
      "Ġstates": 3379,
      "Ġsuff": 3380,
      "ptional": 3381,
      "Ġworkers": 3382,
      "Ġexperience": 3383,
      "Ġempty": 3384,
      "HE": 3385,
      "Ġë": 3386,
      "icator": 3387,
      "Ġrate": 3388,
      "access": 3389,
      "Ġuses": 3390,
      "Ġactive": 3391,
      "ĠQu": 3392,
      "pol": 3393,
      "sk": 3394,
      "uel": 3395,
      "ilder": 3396,
      "Ġconcent": 3397,
      "'),": 3398,
      "ney": 3399,
      "aches": 3400,
      "Ġcalcul": 3401,
      "Ġquestion": 3402,
      "SON": 3403,
      "Ġ]": 3404,
      "ales": 3405,
      "Ġbar": 3406,
      "Ġanc": 3407,
      "Ġ'%": 3408,
      "Ġconduct": 3409,
      "Ġexam": 3410,
      "Ġmanagement": 3411,
      "IG": 3412,
      "target": 3413,
      "Ġaff": 3414,
      "Ġfinal": 3415,
      "Ġindu": 3416,
      "ĠSouth": 3417,
      "oded": 3418,
      "Ġsettings": 3419,
      "Ġteam": 3420,
      "Out": 3421,
      "Ġsense": 3422,
      "Ġrules": 3423,
      "Ġrespect": 3424,
      "ounds": 3425,
      "Ġprec": 3426,
      "Ġ2012": 3427,
      "Ġclean": 3428,
      "ĠAfric": 3429,
      "OM": 3430,
      "ores": 3431,
      "width": 3432,
      "hent": 3433,
      "amic": 3434,
      "ailed": 3435,
      "lay": 3436,
      "Ġcame": 3437,
      "ulated": 3438,
      "Ġconc": 3439,
      "Ġwhose": 3440,
      "Ġquality": 3441,
      "Ġprograms": 3442,
      "ĠAPI": 3443,
      "formation": 3444,
      "pix": 3445,
      "Ġder": 3446,
      "Ġ',": 3447,
      "ĠIran": 3448,
      "Ġprop": 3449,
      "Ġmember": 3450,
      "Ġrespons": 3451,
      "How": 3452,
      "sim": 3453,
      "rec": 3454,
      "ĠShe": 3455,
      "ried": 3456,
      "Ġdoesn": 3457,
      "Ġmusic": 3458,
      "100": 3459,
      "lin": 3460,
      "parameters": 3461,
      "Ġgetattr": 3462,
      "Ġprinc": 3463,
      "scan": 3464,
      "ĠĠĠĠĠĠĠĠĠĠĠĠĠ": 3465,
      "Ġappropri": 3466,
      "stitution": 3467,
      "02": 3468,
      "On": 3469,
      "based": 3470,
      "env": 3471,
      "Ġbrain": 3472,
      "bjct": 3473,
      "ĠUN": 3474,
      "Ġoffset": 3475,
      "Ġsurv": 3476,
      "Ġbusiness": 3477,
      "ĠRuntime": 3478,
      "ĠJohn": 3479,
      "Dict": 3480,
      "LO": 3481,
      "ĠKing": 3482,
      "Ġproduced": 3483,
      "Ġmedia": 3484,
      "Ġhistor": 3485,
      "step": 3486,
      "extend": 3487,
      "rown": 3488,
      "Ġconsum": 3489,
      "ening": 3490,
      "stop": 3491,
      "osis": 3492,
      "ĠWith": 3493,
      "Ġorigin": 3494,
      "Ġdetermine": 3495,
      ":]": 3496,
      "task": 3497,
      "abs": 3498,
      "Ġalmost": 3499,
      "Ġwhite": 3500,
      "Ġheart": 3501,
      "ipv": 3502,
      "ools": 3503,
      "ĠChina": 3504,
      "Ġfeature": 3505,
      "ancy": 3506,
      "Ġbytes": 3507,
      "active": 3508,
      "Ġconsist": 3509,
      "oct": 3510,
      "ellow": 3511,
      "Ġverbose": 3512,
      "ensity": 3513,
      "Ġearth": 3514,
      "Ġskin": 3515,
      "Ġinvolved": 3516,
      "mary": 3517,
      "ari": 3518,
      "Ġfix": 3519,
      "chan": 3520,
      "ĠAg": 3521,
      "cluster": 3522,
      "server": 3523,
      "Ġrot": 3524,
      "Ġflag": 3525,
      "Ġenvironmental": 3526,
      "lat": 3527,
      "Ġcos": 3528,
      "aling": 3529,
      "sequ": 3530,
      "Ġcompar": 3531,
      "parameter": 3532,
      "Ġyoung": 3533,
      "Ġcolle": 3534,
      "Ġsentence": 3535,
      "Regex": 3536,
      "ĠRuntimeError": 3537,
      "You": 3538,
      "]['": 3539,
      "Ġsources": 3540,
      "Ġpaper": 3541,
      "Ġindepend": 3542,
      "idation": 3543,
      "Ġ''": 3544,
      "izer": 3545,
      "Ġplot": 3546,
      "ports": 3547,
      "Ġ40": 3548,
      "Ġcharacters": 3549,
      "Ġscientists": 3550,
      "Ġinternational": 3551,
      "Ġsed": 3552,
      "exc": 3553,
      "Ġclimate": 3554,
      "Ġfeed": 3555,
      "description": 3556,
      "Ġsitu": 3557,
      "ĠMuslim": 3558,
      "pop": 3559,
      "headers": 3560,
      "reed": 3561,
      "Ġcy": 3562,
      "Ġdou": 3563,
      "Ġhar": 3564,
      "ĠAfter": 3565,
      "resource": 3566,
      "Ġincludes": 3567,
      "results": 3568,
      "Gen": 3569,
      "Id": 3570,
      "Set": 3571,
      "UL": 3572,
      "Ġwidth": 3573,
      "Ġrecomm": 3574,
      "ĠMon": 3575,
      "term": 3576,
      "allen": 3577,
      "Ġchunk": 3578,
      "Ġrelig": 3579,
      "minist": 3580,
      "Ġcorrespon": 3581,
      "dtype": 3582,
      "Ġstyle": 3583,
      "Ġdirectly": 3584,
      "Ġlonger": 3585,
      "Ġcapt": 3586,
      "ĠUserID": 3587,
      "Ġaltern": 3588,
      "pen": 3589,
      "raft": 3590,
      "Ġprep": 3591,
      "Ġfunctions": 3592,
      "Ġestim": 3593,
      "Ġwritten": 3594,
      "usion": 3595,
      "Ġhasattr": 3596,
      "Ġproduce": 3597,
      "ĠRead": 3598,
      "function": 3599,
      "Ġestablished": 3600,
      "AD": 3601,
      "cut": 3602,
      "holder": 3603,
      "tual": 3604,
      "Ġinj": 3605,
      "Ġtook": 3606,
      "Ġreference": 3607,
      "child": 3608,
      "ops": 3609,
      "Ġbuilt": 3610,
      "Ġincluded": 3611,
      "servation": 3612,
      "ibrary": 3613,
      "struction": 3614,
      "ìŀĲ": 3615,
      "onstr": 3616,
      "arr": 3617,
      "Ġliter": 3618,
      "ĠPark": 3619,
      "Ġattack": 3620,
      "Ġpassword": 3621,
      "Ġofficial": 3622,
      "When": 3623,
      "can": 3624,
      "Ġutil": 3625,
      "ico": 3626,
      "Ġlic": 3627,
      "Ġbegan": 3628,
      "ĠDNA": 3629,
      "Ġdatetime": 3630,
      "Ġtests": 3631,
      "Ġshows": 3632,
      "Ġpatients": 3633,
      "gy": 3634,
      "Ġsat": 3635,
      "ils": 3636,
      "ugin": 3637,
      "Ġidx": 3638,
      "Ġteacher": 3639,
      "lank": 3640,
      "Ġpractice": 3641,
      "24": 3642,
      "Func": 3643,
      "ober": 3644,
      "Ġachie": 3645,
      "oud": 3646,
      "Ġlot": 3647,
      "Ġconcept": 3648,
      "abled": 3649,
      "argument": 3650,
      "Ġintrodu": 3651,
      "Ġimages": 3652,
      "Ġevolution": 3653,
      "Ġactual": 3654,
      "Ġentry": 3655,
      "Ġfactors": 3656,
      "Ġdiscuss": 3657,
      "Ġbuilding": 3658,
      "Ġprotein": 3659,
      "mptoms": 3660,
      "dc": 3661,
      "erous": 3662,
      "Ġdiet": 3663,
      "Ġhor": 3664,
      "ulate": 3665,
      "Ġviol": 3666,
      "ĠGu": 3667,
      "Ġincreasing": 3668,
      "Ġapproach": 3669,
      "Ġreported": 3670,
      "reshold": 3671,
      "samples": 3672,
      "ä»": 3673,
      "uls": 3674,
      "ĠIdent": 3675,
      "ĠNe": 3676,
      "ĠGr": 3677,
      "acity": 3678,
      "Ġability": 3679,
      "Ġscience": 3680,
      "Ġmatrix": 3681,
      "ĠíĮ": 3682,
      "Ġrelationship": 3683,
      ")[": 3684,
      "\\\\": 3685,
      "dn": 3686,
      "uly": 3687,
      "ĠĠĠĠĠĠĠĠĠĠĠĠĠĠĠĠĠĠ": 3688,
      "ĠMan": 3689,
      "ĠMgtKey": 3690,
      "oney": 3691,
      "Ġoutside": 3692,
      "settings": 3693,
      "curs": 3694,
      "vari": 3695,
      "Ġidea": 3696,
      "nk": 3697,
      "Ġaud": 3698,
      "Ġbound": 3699,
      "ington": 3700,
      "Ġnature": 3701,
      "Ġste": 3702,
      "Ġbecom": 3703,
      "ĠĠĠĠĠĠĠĠĠĠĠĠĠĠĠĠĠĠĠĠĠĠ": 3704,
      "aged": 3705,
      "Ġdefined": 3706,
      "Ġendpoint": 3707,
      "airs": 3708,
      "Ġencoding": 3709,
      "Ġelectric": 3710,
      "Ġspeed": 3711,
      "Object": 3712,
      "mail": 3713,
      "upp": 3714,
      "icate": 3715,
      "Ġevalu": 3716,
      "Ġstory": 3717,
      "ĠNum": 3718,
      "Ġdev": 3719,
      "Ġcontact": 3720,
      "ĠStud": 3721,
      "Ġallowed": 3722,
      "But": 3723,
      "dro": 3724,
      "Ġbul": 3725,
      "Ġthus": 3726,
      "ĠMore": 3727,
      "ĠReg": 3728,
      "Ġheav": 3729,
      "ĠUS": 3730,
      "Ġjud": 3731,
      "Ġregular": 3732,
      "ĠPopbill": 3733,
      "ĠPopbillException": 3734,
      "Log": 3735,
      "lst": 3736,
      "Ġsplit": 3737,
      "leg": 3738,
      "Ġ'{": 3739,
      "ĠCo": 3740,
      "Ġking": 3741,
      "Ġdistance": 3742,
      "Ġequal": 3743,
      "********************************": 3744,
      "Ġquestions": 3745,
      "Element": 3746,
      "Mod": 3747,
      "equipamento": 3748,
      "Ġvill": 3749,
      "ĠWeb": 3750,
      "attle": 3751,
      "Ġdeveloping": 3752,
      "Ġindexes": 3753,
      "Ġappear": 3754,
      "ED": 3755,
      "flow": 3756,
      "Ġaverage": 3757,
      "Ġful": 3758,
      "Ġwest": 3759,
      "Ġinfo": 3760,
      "Ġdir": 3761,
      "cean": 3762,
      "istics": 3763,
      "abet": 3764,
      "orders": 3765,
      "Ġshown": 3766,
      "Ġregard": 3767,
      "Ġattributes": 3768,
      "listRegex": 3769,
      "Ġpositive": 3770,
      "Ġcenter": 3771,
      "Ġdesigned": 3772,
      "ĠChristian": 3773,
      "fety": 3774,
      "Ã§": 3775,
      "only": 3776,
      "itch": 3777,
      "rab": 3778,
      "unction": 3779,
      "unting": 3780,
      "verted": 3781,
      "rial": 3782,
      "oper": 3783,
      "Ġsecurity": 3784,
      "Ġpret": 3785,
      "Ġrunning": 3786,
      "sych": 3787,
      "Ġcomputer": 3788,
      "Ġopportun": 3789,
      "Ġimprove": 3790,
      "Ġpolicy": 3791,
      "life": 3792,
      "mode": 3793,
      "ners": 3794,
      "pay": 3795,
      "inst": 3796,
      "Ġmix": 3797,
      "Ġnote": 3798,
      "ĠUse": 3799,
      "derr": 3800,
      "Ġotherwise": 3801,
      "Ġprimary": 3802,
      "oon": 3803,
      "hest": 3804,
      "eng": 3805,
      "isms": 3806,
      "Ġhabit": 3807,
      "Ġnothing": 3808,
      "osed": 3809,
      "anges": 3810,
      "rence": 3811,
      "Ġthroughout": 3812,
      "annel": 3813,
      "template": 3814,
      "ĠCalif": 3815,
      "schema": 3816,
      "70": 3817,
      "actions": 3818,
      "driver": 3819,
      "ply": 3820,
      "txt": 3821,
      "ļĮ": 3822,
      "orig": 3823,
      "ĠRuss": 3824,
      "Ġwriting": 3825,
      "Ġdetermin": 3826,
      "33": 3827,
      "mic": 3828,
      "Ġtheory": 3829,
      "enn": 3830,
      "Ġwon": 3831,
      "Ġled": 3832,
      "idate": 3833,
      "imal": 3834,
      "ĠDes": 3835,
      "ocol": 3836,
      "Ġdoctor": 3837,
      "Ġprocesses": 3838,
      "Ġmaterials": 3839,
      "Ġpixel": 3840,
      "Ġsoftware": 3841,
      "listRegexes": 3842,
      "first": 3843,
      "rict": 3844,
      "}}": 3845,
      "Ġaid": 3846,
      "Ġsig": 3847,
      "Ġnorth": 3848,
      "Ġthreat": 3849,
      "unch": 3850,
      "ĠPres": 3851,
      "ĠHist": 3852,
      "cons": 3853,
      "acc": 3854,
      "Ġtrade": 3855,
      "Ġinterface": 3856,
      "Ġcover": 3857,
      "oving": 3858,
      "Ġlegal": 3859,
      "Ġensure": 3860,
      "At": 3861,
      "En": 3862,
      "elect": 3863,
      "umb": 3864,
      "ĠAtt": 3865,
      "Ġexerc": 3866,
      "ĠHT": 3867,
      "Ġsea": 3868,
      "Ġcounter": 3869,
      "timeout": 3870,
      "location": 3871,
      "Ġtaking": 3872,
      "apter": 3873,
      "########": 3874,
      "Ġvertex": 3875,
      "Ġcoordinates": 3876,
      "IL": 3877,
      "uff": 3878,
      "erv": 3879,
      "vey": 3880,
      "Ġdep": 3881,
      "plot": 3882,
      "Ġstrings": 3883,
      "ĠOther": 3884,
      "']:": 3885,
      "ensive": 3886,
      "Ġexplo": 3887,
      "Ġhandle": 3888,
      "Ġerrors": 3889,
      "Ġmarket": 3890,
      "iam": 3891,
      "isions": 3892,
      "Ġmor": 3893,
      "iles": 3894,
      "Ġscreen": 3895,
      "Ġ>=": 3896,
      "Ġcommunities": 3897,
      "Ġmaintain": 3898,
      "Ġdemonstr": 3899,
      "Ġprobably": 3900,
      "Ġregistered": 3901,
      "gn": 3902,
      "iqu": 3903,
      "xx": 3904,
      "iting": 3905,
      "Ġeditor": 3906,
      "submit": 3907,
      "Ġtakes": 3908,
      "go": 3909,
      "iers": 3910,
      "mosp": 3911,
      "ĠpRF": 3912,
      "ĠĠĠĠĠĠĠĠĠĠĠĠĠĠĠĠĠĠĠĠĠĠĠĠ": 3913,
      "Ġconvert": 3914,
      "izes": 3915,
      "Ġclick": 3916,
      "Ġmechan": 3917,
      "Ġlayer": 3918,
      "Ġmonths": 3919,
      "80": 3920,
      "rim": 3921,
      "tim": 3922,
      "Ġtmp": 3923,
      "Ġcross": 3924,
      "char": 3925,
      "Ġ'/": 3926,
      "Ġsymptoms": 3927,
      "Ġcontainer": 3928,
      "mean": 3929,
      "ENT": 3930,
      "He": 3931,
      "Sh": 3932,
      "sa": 3933,
      "vest": 3934,
      "xy": 3935,
      "zip": 3936,
      "Ġfru": 3937,
      "Ġbranch": 3938,
      "ager": 3939,
      "Ġemerg": 3940,
      "Ġexpression": 3941,
      "bytes": 3942,
      "Ġcaused": 3943,
      "mitted": 3944,
      "Ġgreen": 3945,
      "ornia": 3946,
      "Ġpayload": 3947,
      "book": 3948,
      "haps": 3949,
      "true": 3950,
      "Ġâ": 3951,
      "Ġcfg": 3952,
      "Ġfri": 3953,
      "Ġwid": 3954,
      "see": 3955,
      "Ġheat": 3956,
      "Ġseconds": 3957,
      "ĠWill": 3958,
      "Ġextract": 3959,
      "Ġterms": 3960,
      "Ġnegative": 3961,
      "remove": 3962,
      "ĠBritish": 3963,
      "Ġfamilies": 3964,
      "just": 3965,
      "pair": 3966,
      "session": 3967,
      "ync": 3968,
      "ĠÂ": 3969,
      "Ġcast": 3970,
      "Ġanaly": 3971,
      "Ġmount": 3972,
      "ĠTra": 3973,
      "vere": 3974,
      "Ġvide": 3975,
      "Ġquick": 3976,
      "rows": 3977,
      "adding": 3978,
      "Ġsurround": 3979,
      "Ġ2010": 3980,
      "Ġrows": 3981,
      "fetch": 3982,
      "Ġangle": 3983,
      ");": 3984,
      "And": 3985,
      "gress": 3986,
      "itation": 3987,
      "arily": 3988,
      "Ġpie": 3989,
      "ĠRep": 3990,
      "article": 3991,
      "Ġ24": 3992,
      "').": 3993,
      "Ġrequires": 3994,
      "delete": 3995,
      "ometry": 3996,
      "Ġbenef": 3997,
      "directory": 3998,
      "ca": 3999,
      "Ġdecre": 4000,
      "ĠFran": 4001,
      "arge": 4002,
      "flict": 4003,
      "Ġdecorator": 4004,
      "ĠIsl": 4005,
      "Ġmilitary": 4006,
      "ĠTypeError": 4007,
      "aff": 4008,
      "pose": 4009,
      "tml": 4010,
      "Ġqueue": 4011,
      "Ġbad": 4012,
      "ĠFile": 4013,
      "Ġheld": 4014,
      "Ġresid": 4015,
      "Ġchallen": 4016,
      "Ġunique": 4017,
      "Ġscript": 4018,
      "Ġcommands": 4019,
      "Ġlarger": 4020,
      "Ġcomplete": 4021,
      "EL": 4022,
      "branch": 4023,
      "dest": 4024,
      "ĠEast": 4025,
      "const": 4026,
      "'].": 4027,
      "Ġadult": 4028,
      "Ġdelete": 4029,
      "Ġobser": 4030,
      "ĠEuropean": 4031,
      "IV": 4032,
      "uary": 4033,
      "ino": 4034,
      "ica": 4035,
      "roy": 4036,
      "Ġsust": 4037,
      "ndarray": 4038,
      "Ġrelative": 4039,
      "Ġbeginning": 4040,
      "ĠKeyError": 4041,
      "Ġsouth": 4042,
      "ications": 4043,
      "semb": 4044,
      "Ġforms": 4045,
      "irm": 4046,
      "Ġrule": 4047,
      "ĠInstitute": 4048,
      "Ġeffective": 4049,
      "Ġpoor": 4050,
      "Ġcomponent": 4051,
      "Ġprivate": 4052,
      "(_": 4053,
      ">,": 4054,
      "uk": 4055,
      "ìĹ": 4056,
      "Ġfire": 4057,
      "Ġmer": 4058,
      "Ġnodes": 4059,
      "urch": 4060,
      "igr": 4061,
      "uman": 4062,
      "Ġdisco": 4063,
      "cast": 4064,
      "ha": 4065,
      "rig": 4066,
      "ara": 4067,
      "Ġreferences": 4068,
      "Ġhtml": 4069,
      "Ġever": 4070,
      "utions": 4071,
      "ĠPe": 4072,
      "ĠRem": 4073,
      "ĠChar": 4074,
      "Ġ2008": 4075,
      "Ġmeta": 4076,
      "Ġselected": 4077,
      "OT": 4078,
      "]):": 4079,
      "det": 4080,
      "pid": 4081,
      "Ġsn": 4082,
      "orage": 4083,
      "Ġ(\"": 4084,
      "Ġexpos": 4085,
      "ĠMe": 4086,
      "ĠRiver": 4087,
      "ipo": 4088,
      "apan": 4089,
      "aste": 4090,
      "Ġapply": 4091,
      "Ġ<=": 4092,
      "Ġreceived": 4093,
      "35": 4094,
      "Form": 4095,
      "UR": 4096,
      "nodes": 4097,
      "Ġerr": 4098,
      "Ġwind": 4099,
      "Ġwaters": 4100,
      "Ġmind": 4101,
      "Ġmother": 4102,
      "Ġhours": 4103,
      "ride": 4104,
      "ĠMor": 4105,
      "ĠHar": 4106,
      "``.": 4107,
      "Ġcompared": 4108,
      "Ġreading": 4109,
      "force": 4110,
      "Ġvalidate": 4111,
      "Ġautom": 4112,
      "Ġselect": 4113,
      "Ġappropriate": 4114,
      "PE": 4115,
      "Ġmicro": 4116,
      "Ġnamed": 4117,
      "amm": 4118,
      "ceed": 4119,
      "rael": 4120,
      "Ġstore": 4121,
      "ado": 4122,
      "essor": 4123,
      "Ġseem": 4124,
      "Ġparse": 4125,
      "Ġsignal": 4126,
      "Ġscientific": 4127,
      "Ġbirth": 4128,
      "=(": 4129,
      "hood": 4130,
      "alination": 4131,
      "oll": 4132,
      "ades": 4133,
      "Ġ'_": 4134,
      "Ġaspect": 4135,
      "','": 4136,
      "avor": 4137,
      "Ġstudent": 4138,
      "Ġfailure": 4139,
      "ĠPhil": 4140,
      "Ġessential": 4141,
      "199": 4142,
      "Ġdraw": 4143,
      "Ġgard": 4144,
      "chunk": 4145,
      "ĠvarNum": 4146,
      "rench": 4147,
      "Ġ2007": 4148,
      "Ġtemplate": 4149,
      "Ġìķ": 4150,
      "Ġobtain": 4151,
      "Request": 4152,
      "ashington": 4153,
      "Ġdescribed": 4154,
      "ottom": 4155,
      "atform": 4156,
      "Ġcamp": 4157,
      "ĠDav": 4158,
      "ĠBl": 4159,
      "Ġseems": 4160,
      "igned": 4161,
      "encode": 4162,
      "ricult": 4163,
      "Ġcauses": 4164,
      "ĠXMLError": 4165,
      "Ġunderstanding": 4166,
      "Ġbirds": 4167,
      "Ġculture": 4168,
      "ĠCalifornia": 4169,
      "fn": 4170,
      "rance": 4171,
      "alog": 4172,
      "Ġdeep": 4173,
      ")),": 4174,
      "ĠOS": 4175,
      "Ġsymb": 4176,
      "Ġremote": 4177,
      "ĠCons": 4178,
      "ĠAny": 4179,
      "Ġgrowing": 4180,
      "payload": 4181,
      "Ġden": 4182,
      "Ġrepe": 4183,
      "Ġlgc": 4184,
      "ims": 4185,
      "ĠAnt": 4186,
      "âĢ¦": 4187,
      "Ġdeb": 4188,
      "Ġheight": 4189,
      "cles": 4190,
      "Ġstrateg": 4191,
      "Ġapplied": 4192,
      "ncil": 4193,
      "IF": 4194,
      "IS": 4195,
      "Nii": 4196,
      "Sub": 4197,
      "xic": 4198,
      "ĽĲ": 4199,
      "rees": 4200,
      "Ġcivil": 4201,
      "Ġmagn": 4202,
      "Ġtown": 4203,
      "store": 4204,
      "uries": 4205,
      "decode": 4206,
      "Ġthous": 4207,
      "vec": 4208,
      "Ġstren": 4209,
      "ĠAN": 4210,
      "essages": 4211,
      "ĠDo": 4212,
      "anged": 4213,
      "Ġenv": 4214,
      "Ġnews": 4215,
      "ribe": 4216,
      "Ġgenes": 4217,
      "lication": 4218,
      "Ext": 4219,
      "ĠDepartment": 4220,
      "Ġcourt": 4221,
      "ĠDataBase": 4222,
      "ĠDataBaseError": 4223,
      "CO": 4224,
      "has": 4225,
      "uous": 4226,
      "ĠCount": 4227,
      "aging": 4228,
      "exists": 4229,
      "('/": 4230,
      "stry": 4231,
      "Ġago": 4232,
      "Ġprocessing": 4233,
      "pret": 4234,
      "Ġ2011": 4235,
      "connection": 4236,
      "ìĦľ": 4237,
      "Ġdirection": 4238,
      "Ġmach": 4239,
      "ava": 4240,
      "Ġ2009": 4241,
      "Ġreflect": 4242,
      "Ġidentify": 4243,
      "Ġmeaning": 4244,
      "close": 4245,
      "ĠInternational": 4246,
      "By": 4247,
      "WS": 4248,
      "ares": 4249,
      "dt": 4250,
      "tot": 4251,
      "tuple": 4252,
      "oun": 4253,
      "etimes": 4254,
      "Ġnuc": 4255,
      "amin": 4256,
      "Ġeast": 4257,
      "Ġ21": 4258,
      "Ġ_,": 4259,
      "ief": 4260,
      "Ġ2006": 4261,
      "udej": 4262,
      "ĠDevelop": 4263,
      "Ġrefer": 4264,
      "Ġboolean": 4265,
      "Ġdetails": 4266,
      "45": 4267,
      "LA": 4268,
      "ike": 4269,
      "ony": 4270,
      "Ġsil": 4271,
      "stdout": 4272,
      "Ġlambda": 4273,
      "sect": 4274,
      "estamp": 4275,
      "Ġexpect": 4276,
      "ĠPar": 4277,
      "Ġallows": 4278,
      "ĠWhile": 4279,
      "Ġcarbon": 4280,
      "Ġschema": 4281,
      "Pl": 4282,
      "Se": 4283,
      "ded": 4284,
      "Ġfederal": 4285,
      "Ġpict": 4286,
      "Ġbal": 4287,
      "Ġreview": 4288,
      "ĠPart": 4289,
      "ĠJan": 4290,
      "Ġcallback": 4291,
      "pril": 4292,
      "Ġhandler": 4293,
      "PrfTc": 4294,
      "Ġcred": 4295,
      "Ġfront": 4296,
      "anced": 4297,
      "Ġmoney": 4298,
      "Ġnation": 4299,
      "Ġlate": 4300,
      "Ġequipment": 4301,
      "imately": 4302,
      "Ġshare": 4303,
      "Ġuseful": 4304,
      "Ġinside": 4305,
      "Ġesc": 4306,
      "Ġignore": 4307,
      "execute": 4308,
      "hy": 4309,
      "mo": 4310,
      "xml": 4311,
      "ìĽĲ": 4312,
      "Ġslow": 4313,
      "Ġfa": 4314,
      "oup": 4315,
      "Ġnd": 4316,
      "ĠMudej": 4317,
      "elling": 4318,
      "enced": 4319,
      "Ġsimply": 4320,
      "username": 4321,
      "Ġdestination": 4322,
      "Ġprior": 4323,
      "Ġanimal": 4324,
      "Ġbelieve": 4325,
      "offset": 4326,
      "CE": 4327,
      "yal": 4328,
      "rapy": 4329,
      "ĠAm": 4330,
      "Ġalthough": 4331,
      "ĠJapan": 4332,
      "akes": 4333,
      "Ġpredict": 4334,
      "'''": 4335,
      "Ġcirc": 4336,
      "Ġprincip": 4337,
      "ļĮìĽĲ": 4338,
      "Im": 4339,
      "long": 4340,
      "zing": 4341,
      "eline": 4342,
      "Ġcomment": 4343,
      "Ġshall": 4344,
      "Ġdesired": 4345,
      "proper": 4346,
      "ecause": 4347,
      "Ġsafety": 4348,
      "Ġfeatures": 4349,
      "commands": 4350,
      "atterns": 4351,
      "ambiente": 4352,
      "Ġlabels": 4353,
      "Ġchanged": 4354,
      "Ġbeta": 4355,
      "Ġsometimes": 4356,
      "Ġlinks": 4357,
      "Ġperformance": 4358,
      "bi": 4359,
      "top": 4360,
      "edia": 4361,
      "Ġbring": 4362,
      "ussion": 4363,
      "email": 4364,
      "Ġatom": 4365,
      "ĠGroup": 4366,
      "Ġtransform": 4367,
      "Ġassess": 4368,
      "Ġbackground": 4369,
      "bas": 4370,
      "rong": 4371,
      "olic": 4372,
      "ĠĠĠĠĠĠĠĠĠĠĠĠĠĠĠĠĠĠĠĠĠĠĠĠĠ": 4373,
      "Ġcomes": 4374,
      "Ġimmedi": 4375,
      "Ġregex": 4376,
      "eger": 4377,
      "Ġtherefore": 4378,
      "Exist": 4379,
      "Ġsafe": 4380,
      "Ġconnect": 4381,
      "Ġexperiment": 4382,
      "ĠIsrael": 4383,
      "Ġmulti": 4384,
      "pite": 4385,
      "oring": 4386,
      "eta": 4387,
      "ples": 4388,
      "indices": 4389,
      "Ġapi": 4390,
      "ĠIndia": 4391,
      "Ġschools": 4392,
      "Ġbooks": 4393,
      "Ġindustry": 4394,
      "US": 4395,
      "ersion": 4396,
      "ialize": 4397,
      "rypt": 4398,
      "Ġextension": 4399,
      "Ġminimum": 4400,
      "Ġloop": 4401,
      "Ġsmaller": 4402,
      "Ġvariables": 4403,
      "undred": 4404,
      "26": 4405,
      "GET": 4406,
      "iences": 4407,
      "Ĥ¬": 4408,
      "Ġfill": 4409,
      "Ġfarm": 4410,
      "Ġlack": 4411,
      "Ġonline": 4412,
      "alls": 4413,
      "ĠWashington": 4414,
      "ords": 4415,
      "strict": 4416,
      "ĠVir": 4417,
      "phas": 4418,
      "Ġvariety": 4419,
      "Ġcurrently": 4420,
      "Ġcentral": 4421,
      "Ġcomplet": 4422,
      "Ġlimited": 4423,
      "Ġmovement": 4424,
      "Ġsteps": 4425,
      "authors": 4426,
      "One": 4427,
      "UB": 4428,
      "web": 4429,
      "Ġfat": 4430,
      "Ġmatter": 4431,
      "Ġrepl": 4432,
      "Ġreach": 4433,
      "Ġhits": 4434,
      "ĠJune": 4435,
      "Ġgenerally": 4436,
      "Ġstarted": 4437,
      "Ġzip": 4438,
      "Ġlabor": 4439,
      "Ġoccurs": 4440,
      "Ġparticularly": 4441,
      "Ġbehavior": 4442,
      "36": 4443,
      "</": 4444,
      "Add": 4445,
      "ira": 4446,
      "Ġ,": 4447,
      "iny": 4448,
      "oration": 4449,
      "Ġbox": 4450,
      "Ġbrought": 4451,
      "urg": 4452,
      "ĠMany": 4453,
      "orthern": 4454,
      "clud": 4455,
      "Ġdoing": 4456,
      "Ġpermission": 4457,
      "attrib": 4458,
      "script": 4459,
      "Ġdifference": 4460,
      "Ġminutes": 4461,
      "29": 4462,
      "Code": 4463,
      "more": 4464,
      "rated": 4465,
      "Ġuri": 4466,
      "Ġda": 4467,
      "Ġmissing": 4468,
      "ida": 4469,
      "rack": 4470,
      "Ġconstruct": 4471,
      "Ġ::": 4472,
      "Ġatmosp": 4473,
      "vals": 4474,
      "ĠComp": 4475,
      "Ġveh": 4476,
      "Ġauthors": 4477,
      "ĠEditor": 4478,
      "bran": 4479,
      "elt": 4480,
      "Ġbacter": 4481,
      "Ġdead": 4482,
      "allel": 4483,
      "Ġacqu": 4484,
      "commit": 4485,
      "axis": 4486,
      "Ġsupported": 4487,
      "Ġawait": 4488,
      "Chnk": 4489,
      "plicit": 4490,
      "Ġforeign": 4491,
      "Ġcontract": 4492,
      "ĠOct": 4493,
      "Ġanything": 4494,
      "Ġioc": 4495,
      "classes": 4496,
      "Ġtesting": 4497,
      "Ġinstit": 4498,
      "Ġveget": 4499,
      "local": 4500,
      "Ġfinally": 4501,
      "ustral": 4502,
      "Ġconcern": 4503,
      "Load": 4504,
      "wrapper": 4505,
      "inct": 4506,
      "Ġfather": 4507,
      "estic": 4508,
      "ĠMass": 4509,
      "ĠBo": 4510,
      "ube": 4511,
      "Ġ2005": 4512,
      "Ġexpand": 4513,
      "gene": 4514,
      "ĠAlthough": 4515,
      "ĠScience": 4516,
      "Ġaffected": 4517,
      "DS": 4518,
      "RA": 4519,
      "With": 4520,
      "rand": 4521,
      "ìķ": 4522,
      "ario": 4523,
      "Ġwrapper": 4524,
      "roles": 4525,
      "Ġlost": 4526,
      "olved": 4527,
      "Ġgot": 4528,
      "Ġexact": 4529,
      "ĠGree": 4530,
      "ango": 4531,
      "ibration": 4532,
      "Ġprefix": 4533,
      "ught": 4534,
      "attribute": 4535,
      "Ġtravel": 4536,
      "Ġfeet": 4537,
      "Ġlooking": 4538,
      "objects": 4539,
      "Ġforest": 4540,
      "Ġstatement": 4541,
      "datas": 4542,
      "Ġprofession": 4543,
      "Check": 4544,
      "hold": 4545,
      "language": 4546,
      "next": 4547,
      "page": 4548,
      "water": 4549,
      "ĶĶ": 4550,
      "umps": 4551,
      "ĠMP": 4552,
      "Ġsec": 4553,
      "Ġunit": 4554,
      "duc": 4555,
      "Ġremoved": 4556,
      "Ġpoll": 4557,
      "Review": 4558,
      "Ġcapital": 4559,
      "utils": 4560,
      "23": 4561,
      "=[": 4562,
      "FA": 4563,
      "bin": 4564,
      "cp": 4565,
      "light": 4566,
      "ë¦": 4567,
      "Ġwent": 4568,
      "Ġ'-": 4569,
      "ĠPress": 4570,
      "ĠFrench": 4571,
      "ĠDis": 4572,
      "Ġneighb": 4573,
      "Ġdesalination": 4574,
      "Ġspeak": 4575,
      "POST": 4576,
      "Bu": 4577,
      "Nao": 4578,
      "bl": 4579,
      "gument": 4580,
      "iber": 4581,
      "oo": 4582,
      "sent": 4583,
      "sig": 4584,
      "uz": 4585,
      "writ": 4586,
      "ystem": 4587,
      "Ġsus": 4588,
      "Ġfoot": 4589,
      "asons": 4590,
      "Ġthird": 4591,
      "oly": 4592,
      "ĠFirst": 4593,
      "aved": 4594,
      "Ġgenetic": 4595,
      "Ġmeet": 4596,
      "Invalid": 4597,
      "Ġcompan": 4598,
      "Ġgenerator": 4599,
      "Ġedge": 4600,
      "ĠArt": 4601,
      "----------------": 4602,
      "Ġsociety": 4603,
      "Ġinvestig": 4604,
      "gypt": 4605,
      "cat": 4606,
      "wo": 4607,
      "ê°": 4608,
      "Ġfn": 4609,
      "Ġreve": 4610,
      "ided": 4611,
      "raint": 4612,
      "olute": 4613,
      "uler": 4614,
      "ĠNA": 4615,
      "Ġalpha": 4616,
      "Ġdevices": 4617,
      "ternal": 4618,
      "aint": 4619,
      "socket": 4620,
      "Ġsoon": 4621,
      "Ġusername": 4622,
      "Ġskills": 4623,
      "Ġprotection": 4624,
      "Ġpopular": 4625,
      "Ġefforts": 4626,
      "ĠíĮĿ": 4627,
      "Ser": 4628,
      "cell": 4629,
      "lt": 4630,
      "lies": 4631,
      "sv": 4632,
      "ë¹": 4633,
      "atively": 4634,
      "Ġface": 4635,
      "Ġrelease": 4636,
      "Ġthing": 4637,
      "asses": 4638,
      "Ġraised": 4639,
      "Ġspir": 4640,
      "related": 4641,
      "Ġdiagn": 4642,
      "NotFound": 4643,
      "Ad": 4644,
      "Col": 4645,
      "Create": 4646,
      "Ġburn": 4647,
      "icip": 4648,
      "olve": 4649,
      "ĠTrans": 4650,
      "abilities": 4651,
      "Ġdefinition": 4652,
      "Ġstarting": 4653,
      "ĉĉĉ": 4654,
      "anguages": 4655,
      "Ġmatches": 4656,
      "Ġcarry": 4657,
      "build": 4658,
      "ĠĠĠĠĠĠĠĠĠĠĠĠĠĠĠĠĠĠĠĠĠĠĠĠĠĠĠĠĠĠ": 4659,
      "Ġnearly": 4660,
      "ĠSystem": 4661,
      "Ġfocus": 4662,
      "ĠAssoci": 4663,
      ",'": 4664,
      "Ac": 4665,
      "auss": 4666,
      "dr": 4667,
      "dist": 4668,
      "lier": 4669,
      "yaml": 4670,
      "Ġmom": 4671,
      "Ġlives": 4672,
      "look": 4673,
      "Ġdepth": 4674,
      "Ġround": 4675,
      "Ġids": 4676,
      "indexes": 4677,
      "Ġ60": 4678,
      "Ġmilk": 4679,
      "Ġpixels": 4680,
      "exceptions": 4681,
      "Ġsexual": 4682,
      "`,": 4683,
      "jango": 4684,
      "Ġsound": 4685,
      "Ġcard": 4686,
      "arian": 4687,
      "Ġblank": 4688,
      "Ġreverse": 4689,
      "Ġnut": 4690,
      "Ġstar": 4691,
      "ĠIS": 4692,
      "ĠSchool": 4693,
      "ĠEgypt": 4694,
      "izations": 4695,
      "ĠWORD": 4696,
      "astype": 4697,
      "Ġscale": 4698,
      "ugg": 4699,
      "ensus": 4700,
      "numpy": 4701,
      "Ġmonitor": 4702,
      "Ġhumans": 4703,
      "vertex": 4704,
      "Ġsuccessful": 4705,
      "ĠSociety": 4706,
      "44": 4707,
      "unks": 4708,
      "Ġproced": 4709,
      "ĠHer": 4710,
      "Ġacid": 4711,
      "Ġ197": 4712,
      "Ġcontinued": 4713,
      "Ġsolar": 4714,
      "Ġsites": 4715,
      "Ġtreated": 4716,
      "ĠCanada": 4717,
      "Ġoccup": 4718,
      "27": 4719,
      "ech": 4720,
      "oice": 4721,
      "wl": 4722,
      "Ħì": 4723,
      "Ġcat": 4724,
      "Ġpip": 4725,
      "edges": 4726,
      "aining": 4727,
      "Ġdisplay": 4728,
      "uge": 4729,
      "Ġserious": 4730,
      "encies": 4731,
      "Ġoperation": 4732,
      "Ġapplications": 4733,
      "Ġbroad": 4734,
      "Ġdrive": 4735,
      "Ġhydro": 4736,
      "Ġtraditional": 4737,
      "ë¹Į": 4738,
      "eError": 4739,
      "frame": 4740,
      "ming": 4741,
      "vant": 4742,
      "åĲ": 4743,
      "Ġsal": 4744,
      "Ġsleep": 4745,
      "Ġcateg": 4746,
      "Ġpsych": 4747,
      "Ġmis": 4748,
      "Ġmid": 4749,
      "Ġmill": 4750,
      "Ġmiddle": 4751,
      "Ġtoxic": 4752,
      "ĠCou": 4753,
      "Ġchart": 4754,
      "ĠLaw": 4755,
      "Ġkids": 4756,
      "ĠJSON": 4757,
      "shift": 4758,
      "Ġshowed": 4759,
      "doi": 4760,
      "conditions": 4761,
      "ĠDictionary": 4762,
      "Ġdamage": 4763,
      "Ġanswer": 4764,
      "Logger": 4765,
      "Reviewing": 4766,
      "ĠíĮĿë¹Į": 4767,
      "Ġ):": 4768,
      "Ġcel": 4769,
      "Ġwalk": 4770,
      "Ġhon": 4771,
      "rays": 4772,
      "ĠMost": 4773,
      "Ġkill": 4774,
      "ologies": 4775,
      "Ġformed": 4776,
      "Ġrecords": 4777,
      "ronic": 4778,
      "Ġinteger": 4779,
      "21": 4780,
      "atically": 4781,
      "Ġcmd": 4782,
      "Ġdog": 4783,
      "style": 4784,
      "Ġhundred": 4785,
      "ĠApril": 4786,
      "Ġones": 4787,
      "osoph": 4788,
      "Ġrat": 4789,
      "aily": 4790,
      "Ġgetting": 4791,
      "Ġappend": 4792,
      "Ġpreserve": 4793,
      "configuration": 4794,
      "Prc": 4795,
      "Ġhealthy": 4796,
      "Ġreceive": 4797,
      "ĠNumber": 4798,
      "Ġvideo": 4799,
      "(**": 4800,
      "RI": 4801,
      "aul": 4802,
      "site": 4803,
      "upper": 4804,
      "vis": 4805,
      "Ġwor": 4806,
      "Ġwide": 4807,
      "Ġwarm": 4808,
      "Ġmag": 4809,
      "Ġmental": 4810,
      "etype": 4811,
      "cember": 4812,
      "igration": 4813,
      "ĠAustral": 4814,
      "Ġord": 4815,
      "Ġlocated": 4816,
      "Ġdecision": 4817,
      "Ġlargest": 4818,
      "varNum": 4819,
      "Ġinterests": 4820,
      "Ġseparate": 4821,
      "85": 4822,
      "come": 4823,
      "member": 4824,
      "wd": 4825,
      "ese": 4826,
      "Ġfoss": 4827,
      "Ġbillion": 4828,
      "ional": 4829,
      "Ġmission": 4830,
      "Ġstrip": 4831,
      "Ġconflict": 4832,
      "ptember": 4833,
      "ĠPers": 4834,
      "ĠOut": 4835,
      "pute": 4836,
      "ĠĠĠĠĠĠĠĠĠĠĠĠĠĠĠĠĠĠĠĠĠĠĠĠĠĠĠĠĠĠĠĠĠ": 4837,
      "ĠInter": 4838,
      "Ġcapacity": 4839,
      "Ġideas": 4840,
      "normal": 4841,
      ".'": 4842,
      "Or": 4843,
      "fast": 4844,
      "§Ģ": 4845,
      "Â°": 4846,
      "Ġpatch": 4847,
      "raises": 4848,
      "riage": 4849,
      "Ġexamples": 4850,
      "Ġdebug": 4851,
      "ĠFind": 4852,
      "ĠOver": 4853,
      "space": 4854,
      "datetime": 4855,
      "Ġexecut": 4856,
      "Ġmolecule": 4857,
      "abetes": 4858,
      "ExisteError": 4859,
      "NaoExisteError": 4860,
      "CC": 4861,
      "LAN": 4862,
      "record": 4863,
      "Ġbin": 4864,
      "stract": 4865,
      "Ġstress": 4866,
      "ĠArab": 4867,
      "Ġvox": 4868,
      "ĠPlan": 4869,
      "Ġ23": 4870,
      "Ġattr": 4871,
      "ĠRequest": 4872,
      "Ġdistribution": 4873,
      "Ġgrant": 4874,
      "Bst": 4875,
      "lers": 4876,
      "ris": 4877,
      "sys": 4878,
      "Ġsq": 4879,
      "estring": 4880,
      "ĠMount": 4881,
      "Ġ\"{}": 4882,
      "ĠRed": 4883,
      "ĠFeb": 4884,
      "ĠOptional": 4885,
      "Ġplaces": 4886,
      "Ġparty": 4887,
      "ĠĠĠĠĠĠĠĠĠĠĠĠĠĠĠĠĠĠĠĠĠĠĠĠĠĠĠĠĠĠĠĠĠĠĠĠĠĠĠ": 4888,
      "Ġsyll": 4889,
      "Ġclasses": 4890,
      "ĠAlso": 4891,
      "Ġshell": 4892,
      "ĠIndian": 4893,
      "ĠDavid": 4894,
      "hu": 4895,
      "save": 4896,
      "ufact": 4897,
      "Ġer": 4898,
      "itness": 4899,
      "Ġtow": 4900,
      "outhern": 4901,
      "Ġquant": 4902,
      "inese": 4903,
      "ĠProgram": 4904,
      "Ġvector": 4905,
      "labels": 4906,
      "Ġvisual": 4907,
      "limit": 4908,
      "\"},": 4909,
      "SD": 4910,
      "Up": 4911,
      "cc": 4912,
      "eks": 4913,
      "non": 4914,
      "tered": 4915,
      "uplic": 4916,
      "onal": 4917,
      "Ġna": 4918,
      "Ġthread": 4919,
      "olar": 4920,
      "Ġvia": 4921,
      "ĠLog": 4922,
      "Ġleaders": 4923,
      "Ġrecently": 4924,
      "Ġtransport": 4925,
      "Ġsupply": 4926,
      "flag": 4927,
      "Ġhimself": 4928,
      "Ġdestroy": 4929,
      "ĠĠĠĠĠĠĠĠĠĠĠĠĠĠĠĠĠĠĠĠĠĠĠĠĠĠĠĠĠ": 4930,
      "Ġfully": 4931,
      "05": 4932,
      "CP": 4933,
      "ster": 4934,
      "enth": 4935,
      "ifact": 4936,
      "ĠCong": 4937,
      "Ġsevere": 4938,
      "ĠWork": 4939,
      "Ġcontribut": 4940,
      "Ġunknown": 4941,
      "ĠObject": 4942,
      "Ġwebs": 4943,
      "ĠJournal": 4944,
      "Ġrob": 4945,
      "Ġroad": 4946,
      "Ġcoast": 4947,
      "Ġindust": 4948,
      "String": 4949,
      "Read": 4950,
      "Ġbasis": 4951,
      "Ġplanet": 4952,
      "Ġdiseases": 4953,
      "Ġfinanc": 4954,
      "Ġindividuals": 4955,
      "ĠGovern": 4956,
      "Ġcitiz": 4957,
      "\"),": 4958,
      "API": 4959,
      "faces": 4960,
      "çļ": 4961,
      "Ġspect": 4962,
      "left": 4963,
      "oles": 4964,
      "Ġforward": 4965,
      "oder": 4966,
      "ldap": 4967,
      "Ġunicode": 4968,
      "Ġsoil": 4969,
      "Ġtrig": 4970,
      "Ġcreation": 4971,
      "Ġpaths": 4972,
      "uccess": 4973,
      "useum": 4974,
      "Ġhighest": 4975,
      "handler": 4976,
      "ĠDefaults": 4977,
      "çļĦ": 4978,
      "65": 4979,
      "Can": 4980,
      "aid": 4981,
      "green": 4982,
      "warning": 4983,
      "Ġtend": 4984,
      "report": 4985,
      "etts": 4986,
      "Ġhands": 4987,
      "ĠMy": 4988,
      "ĠBu": 4989,
      "Ġcontra": 4990,
      "ĠUp": 4991,
      "Ġjur": 4992,
      "comple": 4993,
      "iverse": 4994,
      "Ġgradu": 4995,
      "Ġdiscussion": 4996,
      "Ġcalc": 4997,
      "Ġelectr": 4998,
      "Ġmiles": 4999,
      "supp": 5000,
      "Ġconstant": 5001,
      "Ġroute": 5002,
      "Ġexposure": 5003,
      "Det": 5004,
      "Qu": 5005,
      "So": 5006,
      "ban": 5007,
      "isl": 5008,
      "los": 5009,
      "ocr": 5010,
      "Ġsecret": 5011,
      "Ġadopt": 5012,
      "ugust": 5013,
      "Ġamb": 5014,
      "Ġgenerated": 5015,
      "ĠCommand": 5016,
      "ĠPresident": 5017,
      "Ġsustain": 5018,
      "HO": 5019,
      "Msg": 5020,
      "global": 5021,
      "Ġsolution": 5022,
      "isher": 5023,
      "Ġban": 5024,
      "Ġdark": 5025,
      "Ġtoward": 5026,
      "room": 5027,
      "iling": 5028,
      "Ġ((": 5029,
      "ĠSun": 5030,
      "ĠNote": 5031,
      "ĠHuman": 5032,
      "make": 5033,
      "ĠChinese": 5034,
      "Ġspread": 5035,
      "Ġattention": 5036,
      "ncop": 5037,
      "Ġremains": 5038,
      "Ġeasy": 5039,
      "90": 5040,
      "URL": 5041,
      "best": 5042,
      "press": 5043,
      "src": 5044,
      "Ġå": 5045,
      "Ġpages": 5046,
      "Ġbottom": 5047,
      "Ġhot": 5048,
      "Ġisn": 5049,
      "Ġgave": 5050,
      "ĠNow": 5051,
      "ĠMet": 5052,
      "Ġupper": 5053,
      "Ġusers": 5054,
      "Ġplaced": 5055,
      "achus": 5056,
      "Ġtrying": 5057,
      "Ġedges": 5058,
      "Ġprojects": 5059,
      "Ġapprox": 5060,
      "Ġdemand": 5061,
      "Ġcosts": 5062,
      "ĠFlor": 5063,
      "Ġindependent": 5064,
      "Ġcorresponding": 5065,
      "Ġaudio": 5066,
      "SC": 5067,
      "Some": 5068,
      "rout": 5069,
      "spe": 5070,
      "æĸ": 5071,
      "Ġson": 5072,
      "Ġsand": 5073,
      "Ġlove": 5074,
      "sec": 5075,
      "ador": 5076,
      "ĠLab": 5077,
      "ĠJuly": 5078,
      "Ġjournal": 5079,
      "Ġlaws": 5080,
      "ployment": 5081,
      "ferred": 5082,
      "Ġestablish": 5083,
      "Ġfigure": 5084,
      "Ġeye": 5085,
      "ĠNASA": 5086,
      "\"))": 5087,
      "RO": 5088,
      "ham": 5089,
      "mes": 5090,
      "è¯": 5091,
      "Ġeth": 5092,
      "req": 5093,
      "Ġpatterns": 5094,
      "Ġdimension": 5095,
      "Ġthreshold": 5096,
      "Ġforces": 5097,
      "ulf": 5098,
      "Ġalone": 5099,
      "Ġenable": 5100,
      "Ġmanufact": 5101,
      "Ġsubst": 5102,
      "Ġflu": 5103,
      "Ġinstances": 5104,
      "connect": 5105,
      "Ġcombined": 5106,
      "Ġleading": 5107,
      "Ġmotor": 5108,
      "ë¦¬": 5109,
      "37": 5110,
      "]),": 5111,
      "dot": 5112,
      "wsg": 5113,
      "zed": 5114,
      "Ġtou": 5115,
      "Ġtur": 5116,
      "Ġsamples": 5117,
      "Ġfuel": 5118,
      "ellect": 5119,
      "oura": 5120,
      "ĠHunting": 5121,
      "apping": 5122,
      "Ġsetting": 5123,
      "Ġcalls": 5124,
      "Ġinformed": 5125,
      "Ġ{}'.": 5126,
      "Ġpopulations": 5127,
      "interface": 5128,
      "ĠHistory": 5129,
      "achusetts": 5130,
      "Run": 5131,
      "sbjct": 5132,
      "Ġri": 5133,
      "Ġten": 5134,
      "Ġbur": 5135,
      "imin": 5136,
      "iments": 5137,
      "Ġstored": 5138,
      "ainer": 5139,
      "ĠDel": 5140,
      "ĠLoad": 5141,
      "Ġrock": 5142,
      "regex": 5143,
      "ĠaryMdl": 5144,
      "Ġreports": 5145,
      "ridge": 5146,
      "Ġbehind": 5147,
      "ìĹħ": 5148,
      "MP": 5149,
      "mem": 5150,
      "sage": 5151,
      "Ġque": 5152,
      "Ġdyn": 5153,
      "Ġmob": 5154,
      "separ": 5155,
      "Ġ'/'": 5156,
      "ĠSm": 5157,
      "ander": 5158,
      "Ġseg": 5159,
      "Ġcommerc": 5160,
      "Ġcoll": 5161,
      "ĠString": 5162,
      "Ġemb": 5163,
      "Ġbelong": 5164,
      "Ġaware": 5165,
      "Ġslight": 5166,
      "buffer": 5167,
      "Ġmatching": 5168,
      "Ġpersonal": 5169,
      "Ġpatient": 5170,
      "Ġiniti": 5171,
      "Ġdigital": 5172,
      "========": 5173,
      "Ġcompletely": 5174,
      "dic": 5175,
      "Ġsaw": 5176,
      "stack": 5177,
      "stderr": 5178,
      "ama": 5179,
      "ĠSim": 5180,
      "ĠCour": 5181,
      "Ġvict": 5182,
      "Ġproposed": 5183,
      "ĠPre": 5184,
      "Ġ\"%": 5185,
      "ĠEl": 5186,
      "ĠBer": 5187,
      "Ġadapt": 5188,
      "Ġcolour": 5189,
      "ĠĠĠĠĠĠĠĠĠĠĠĠĠĠĠĠĠĠĠĠĠĠĠĠĠĠĠĠĠĠĠĠĠĠĠĠĠĠĠĠĠĠĠĠĠĠĠĠĠĠĠĠĠĠĠĠĠĠĠĠĠĠĠĠ": 5190,
      "Ġupdated": 5191,
      "ĠChild": 5192,
      "ĠUnion": 5193,
      "Ġhighly": 5194,
      "attrs": 5195,
      "Ġtrial": 5196,
      "Parser": 5197,
      "89": 5198,
      "DI": 5199,
      "band": 5200,
      "eff": 5201,
      "fect": 5202,
      "rn": 5203,
      "wait": 5204,
      "ying": 5205,
      "Ġdt": 5206,
      "Ġnone": 5207,
      "ĠSan": 5208,
      "oday": 5209,
      "ĠEach": 5210,
      "Ġdoi": 5211,
      "Ġquite": 5212,
      "Ġformer": 5213,
      "Ġrelation": 5214,
      "Ġruns": 5215,
      "ĠSeptember": 5216,
      "ypes": 5217,
      "Ġìŀ": 5218,
      "Ġìł": 5219,
      "Ġcourses": 5220,
      "desc": 5221,
      "porary": 5222,
      "Ġpython": 5223,
      "Ġillustr": 5224,
      "Ġreligious": 5225,
      "mar": 5226,
      "pub": 5227,
      "volution": 5228,
      "Ġcook": 5229,
      "itect": 5230,
      "Ġduration": 5231,
      "Ġeat": 5232,
      "Ġstorage": 5233,
      "ĠCivil": 5234,
      "odies": 5235,
      "ĠMary": 5236,
      "ĠMethod": 5237,
      "ĠDec": 5238,
      "ĠWater": 5239,
      "Ġperhaps": 5240,
      "Ġparallel": 5241,
      "Ġinternal": 5242,
      "Ġtemp": 5243,
      "Ġreduced": 5244,
      "Ġmeasures": 5245,
      "Ġcombination": 5246,
      "Ġeasily": 5247,
      "Ġinfluence": 5248,
      "ĠPython": 5249,
      "iques": 5250,
      "28": 5251,
      "git": 5252,
      "ħë": 5253,
      "Ġgives": 5254,
      "ĠSA": 5255,
      "ĠSub": 5256,
      "Ġcontents": 5257,
      "angle": 5258,
      "udo": 5259,
      "actor": 5260,
      "Ġdisorders": 5261,
      "ovember": 5262,
      "encoding": 5263,
      "ĠUnicode": 5264,
      "models": 5265,
      "ifying": 5266,
      "Ġfollowed": 5267,
      "Ġanti": 5268,
      "Ġvolume": 5269,
      "pixel": 5270,
      "ULT": 5271,
      "Ġbecomes": 5272,
      "CON": 5273,
      "lor": 5274,
      "pers": 5275,
      "eria": 5276,
      "Ġdb": 5277,
      "Ġdang": 5278,
      "outer": 5279,
      "entry": 5280,
      "Ġlif": 5281,
      "Ġvacc": 5282,
      "ogram": 5283,
      "These": 5284,
      "Ġroom": 5285,
      "Ġoffer": 5286,
      "Ġassum": 5287,
      "Ġearlier": 5288,
      "Ġclos": 5289,
      "Ġrequirements": 5290,
      "Ġsituation": 5291,
      "Ġestimated": 5292,
      "ĠJanuary": 5293,
      "All": 5294,
      "TE": 5295,
      "cmd": 5296,
      "gor": 5297,
      "hel": 5298,
      "ona": 5299,
      "Ġbeds": 5300,
      "Ġeight": 5301,
      "rapped": 5302,
      "Ġgame": 5303,
      "Ġusage": 5304,
      "Ġadminist": 5305,
      "Ġcold": 5306,
      "Ġlists": 5307,
      "Ġcallable": 5308,
      "Ġarticles": 5309,
      "ruary": 5310,
      "Ġstandards": 5311,
      "Ġdomain": 5312,
      "ĠCouncil": 5313,
      "31": 5314,
      "38": 5315,
      "II": 5316,
      "lands": 5317,
      "men": 5318,
      "west": 5319,
      "Ġsem": 5320,
      "Ġpp": 5321,
      "Ġnome": 5322,
      "rote": 5323,
      "ula": 5324,
      "Ġexplicit": 5325,
      "ĠFound": 5326,
      "Ġarri": 5327,
      "ĠKe": 5328,
      "tee": 5329,
      "Ġphil": 5330,
      "Ġcompet": 5331,
      "full": 5332,
      "tters": 5333,
      "{}'.": 5334,
      "Ġpersons": 5335,
      "[:-": 5336,
      "events": 5337,
      "handle": 5338,
      "Ġfitting": 5339,
      "Ġcritical": 5340,
      "Ġlatest": 5341,
      "ĠCommun": 5342,
      "ëĭ¤": 5343,
      "board": 5344,
      "Ġancient": 5345,
      "Ġsediment": 5346,
      "Ġexercise": 5347,
      "ĠWilliam": 5348,
      "Ġobserved": 5349,
      "ĠAssociation": 5350,
      "Cn": 5351,
      "TER": 5352,
      "gra": 5353,
      "Ġtu": 5354,
      "aled": 5355,
      "alax": 5356,
      "Ġfear": 5357,
      "Ġdf": 5358,
      "stat": 5359,
      "Ġreq": 5360,
      "iled": 5361,
      "ĠEmp": 5362,
      "('%": 5363,
      "Ġenh": 5364,
      "Ġcolors": 5365,
      "Ġtruth": 5366,
      "Ġii": 5367,
      "Ġdiscovered": 5368,
      "idden": 5369,
      "Ġpackage": 5370,
      "ĠAccording": 5371,
      "Ġexecute": 5372,
      "rolled": 5373,
      "Ġresponsible": 5374,
      "Ġalternative": 5375,
      "Ġbenefits": 5376,
      "Ġgarden": 5377,
      "ĠMPa": 5378,
      "Cnfg": 5379,
      "DF": 5380,
      "iency": 5381,
      "na": 5382,
      "Ġsong": 5383,
      "enate": 5384,
      "Ġflo": 5385,
      "Ġfast": 5386,
      "edge": 5387,
      "ĠEduc": 5388,
      "ĠBook": 5389,
      "Ġrare": 5390,
      "Ġweeks": 5391,
      "Ġaccur": 5392,
      "Ġpregn": 5393,
      "Ġgoal": 5394,
      "contents": 5395,
      "Ġhelps": 5396,
      "ĠDecember": 5397,
      "Ġeverything": 5398,
      "Ġswe": 5399,
      "99999999": 5400,
      "csv": 5401,
      "ODO": 5402,
      "Ġdrugs": 5403,
      "Ġquickly": 5404,
      "Ġmoment": 5405,
      "bib": 5406,
      "diff": 5407,
      "lgc": 5408,
      "Ġsold": 5409,
      "orge": 5410,
      "isfile": 5411,
      "Ġfra": 5412,
      "Ġflood": 5413,
      "Ġborder": 5414,
      "Ġdaily": 5415,
      "ctors": 5416,
      "oted": 5417,
      "ĠIN": 5418,
      "ĠSpec": 5419,
      "agent": 5420,
      "Ġvip": 5421,
      "ests": 5422,
      "Ġwhom": 5423,
      "opes": 5424,
      "ĠBar": 5425,
      "Ġchance": 5426,
      "ĠLa": 5427,
      "ĠLord": 5428,
      "astic": 5429,
      "ĠOb": 5430,
      "ibly": 5431,
      "Ġblue": 5432,
      "Ġinteresting": 5433,
      "Ġmajority": 5434,
      "Ġoppos": 5435,
      "ography": 5436,
      "download": 5437,
      "ĠTechn": 5438,
      "Ġofficials": 5439,
      "Ġachieve": 5440,
      "ĠMassachusetts": 5441,
      "Ġcompanies": 5442,
      "ellectual": 5443,
      "34": 5444,
      "39": 5445,
      "Frame": 5446,
      "box": 5447,
      "Ġpet": 5448,
      "Ġbond": 5449,
      "Ġdry": 5450,
      "Ġrestrict": 5451,
      "Ġstars": 5452,
      "Ġ'':": 5453,
      "Ġvit": 5454,
      "Ġexport": 5455,
      "Ġdeal": 5456,
      "allow": 5457,
      "activ": 5458,
      "ĠJames": 5459,
      "Ġagricult": 5460,
      "Ġphase": 5461,
      "Ġrecorded": 5462,
      "ospital": 5463,
      "Argument": 5464,
      "ê°Ģ": 5465,
      "QL": 5466,
      "kg": 5467,
      "mult": 5468,
      "sm": 5469,
      "win": 5470,
      "onom": 5471,
      "itable": 5472,
      "ania": 5473,
      "Ġpan": 5474,
      "Ġdied": 5475,
      "Ġnight": 5476,
      "ĠSince": 5477,
      "ĠMarch": 5478,
      "Ġ\".": 5479,
      "ĠRel": 5480,
      "ptions": 5481,
      "Ġsocket": 5482,
      "Ġqual": 5483,
      "Ġpeak": 5484,
      "context": 5485,
      "commun": 5486,
      "Ġmembran": 5487,
      "ampled": 5488,
      "matrix": 5489,
      "Ġoperations": 5490,
      "Ġequival": 5491,
      "empty": 5492,
      "Ġcultural": 5493,
      "Ġannual": 5494,
      "Ġbenefit": 5495,
      "Ġconducted": 5496,
      "Ġpretty": 5497,
      "ĠDevelopment": 5498,
      "Ġwebsite": 5499,
      "ncopation": 5500,
      "SI": 5501,
      "ioc": 5502,
      "pat": 5503,
      "pattern": 5504,
      "Ġtables": 5505,
      "atur": 5506,
      "Ġfem": 5507,
      "eding": 5508,
      "Ġreasons": 5509,
      "ĠAv": 5510,
      "ĠCity": 5511,
      "ĠMake": 5512,
      "ĠFrance": 5513,
      "('.": 5514,
      "Ġleave": 5515,
      "oken": 5516,
      "Ġminor": 5517,
      "Ġrepo": 5518,
      "oves": 5519,
      "Ġolder": 5520,
      "Ġadvant": 5521,
      "Ġdegree": 5522,
      "Att": 5523,
      "BC": 5524,
      "EP": 5525,
      "Rem": 5526,
      "Time": 5527,
      "rat": 5528,
      "Ã¶": 5529,
      "Ġum": 5530,
      "Ġult": 5531,
      "Īëĭ¤": 5532,
      "insert": 5533,
      "isation": 5534,
      "Ġbab": 5535,
      "Ġmaster": 5536,
      "lege": 5537,
      "Ġtools": 5538,
      "emon": 5539,
      "ĠRec": 5540,
      "Ġrates": 5541,
      "ĠForm": 5542,
      "arguments": 5543,
      "Ġimag": 5544,
      "They": 5545,
      "Ġemission": 5546,
      "Ġpresence": 5547,
      "genus": 5548,
      "ĠInteger": 5549,
      "Ġorganization": 5550,
      "ributeError": 5551,
      "Ġdiabetes": 5552,
      "ĠMedicine": 5553,
      "ëĭĪëĭ¤": 5554,
      "Ġceleb": 5555,
      "67": 5556,
      "69": 5557,
      "Rat": 5558,
      "sor": 5559,
      "åŃ": 5560,
      "íļĮìĽĲ": 5561,
      "real": 5562,
      "reference": 5563,
      "Ġocean": 5564,
      "Ġpys": 5565,
      "ifies": 5566,
      "Ġharm": 5567,
      "Ġec": 5568,
      "change": 5569,
      "umin": 5570,
      "ĠSch": 5571,
      "Ġasp": 5572,
      "ĠPath": 5573,
      "Ġunc": 5574,
      "Ġweather": 5575,
      "Ġjoint": 5576,
      "augh": 5577,
      "collection": 5578,
      "Ġinfection": 5579,
      "Ġcreating": 5580,
      "Ġteachers": 5581,
      "Ġthousands": 5582,
      "({'": 5583,
      "Api": 5584,
      "DA": 5585,
      "aign": 5586,
      "bal": 5587,
      "ny": 5588,
      "µëĭĪëĭ¤": 5589,
      "ìł": 5590,
      "Ġriver": 5591,
      "ĬµëĭĪëĭ¤": 5592,
      "Ġcool": 5593,
      "alpha": 5594,
      "Ġfrag": 5595,
      "Ġpul": 5596,
      "Ġinsert": 5597,
      "Ġlibrary": 5598,
      "Ġstack": 5599,
      "Ġvlan": 5600,
      "ĠHigh": 5601,
      "Ġarr": 5602,
      "Ġseason": 5603,
      "Ġyouth": 5604,
      "Ġgets": 5605,
      "ĠProt": 5606,
      "optional": 5607,
      "Ġgeometry": 5608,
      "grupo": 5609,
      "ĠIranian": 5610,
      "ĠFlorida": 5611,
      "From": 5612,
      "HT": 5613,
      "gin": 5614,
      "iar": 5615,
      "sel": 5616,
      "ÃŃ": 5617,
      "inv": 5618,
      "Ġnor": 5619,
      "device": 5620,
      "otes": 5621,
      "imize": 5622,
      "Ġexternal": 5623,
      "ĠFrom": 5624,
      "('-": 5625,
      "Ġmapping": 5626,
      "Ġplugin": 5627,
      "python": 5628,
      "Ġproviding": 5629,
      "Response": 5630,
      "Ġasked": 5631,
      "Ġdetermined": 5632,
      "ĠRepublic": 5633,
      "ĠíĮĿë¹ĮíļĮìĽĲ": 5634,
      "'ve": 5635,
      "Event": 5636,
      "war": 5637,
      "erved": 5638,
      "Ġinher": 5639,
      "Ġhun": 5640,
      "import": 5641,
      "ĠAre": 5642,
      "usive": 5643,
      "ĠThen": 5644,
      "oses": 5645,
      "ĠRa": 5646,
      "ĠEm": 5647,
      "Ġseq": 5648,
      "Ġsequ": 5649,
      "Ġkid": 5650,
      "Ġrapid": 5651,
      "Ġplatform": 5652,
      "Ġemphas": 5653,
      "__,": 5654,
      "Ġimportance": 5655,
      "flux": 5656,
      "Ġsummer": 5657,
      "reedom": 5658,
      "Ġimmediately": 5659,
      "Ġfinancial": 5660,
      "VER": 5661,
      "lon": 5662,
      "nes": 5663,
      "neg": 5664,
      "Ĩ¡": 5665,
      "inical": 5666,
      "Ġfo": 5667,
      "Ġpool": 5668,
      "Ġnative": 5669,
      "Ġequipamento": 5670,
      "othe": 5671,
      "verty": 5672,
      "ĠAlex": 5673,
      "Ġvoc": 5674,
      "essions": 5675,
      "ĠHere": 5676,
      "Ġscen": 5677,
      "phi": 5678,
      "ĠStart": 5679,
      "Ġsynt": 5680,
      "Ġpeace": 5681,
      "rames": 5682,
      "Ġlocator": 5683,
      "ĠProv": 5684,
      "Ġpoverty": 5685,
      "Ġrepresented": 5686,
      "indows": 5687,
      "ĠOnly": 5688,
      "ĠGeneral": 5689,
      "Ġexclude": 5690,
      "Content": 5691,
      "Ġsuffix": 5692,
      "hentication": 5693,
      "ĠìķĬ": 5694,
      "Ġstrength": 5695,
      "GE": 5696,
      "dig": 5697,
      "fs": 5698,
      "home": 5699,
      "xual": 5700,
      "organ": 5701,
      "ĠAugust": 5702,
      "ĠSw": 5703,
      "astly": 5704,
      "getLogger": 5705,
      "ĠInput": 5706,
      "paths": 5707,
      "``:": 5708,
      "ouses": 5709,
      "Ġemp": 5710,
      "Ġattach": 5711,
      "Ġattract": 5712,
      "score": 5713,
      "Ġsmo": 5714,
      "Ġfinding": 5715,
      "locator": 5716,
      "callback": 5717,
      "ä»¶": 5718,
      "Ġelectricity": 5719,
      "Format": 5720,
      "Ġndarray": 5721,
      "Date": 5722,
      "Per": 5723,
      "sn": 5724,
      "hem": 5725,
      "Ġpal": 5726,
      "Ġhair": 5727,
      "Ġ'--": 5728,
      "ĠCur": 5729,
      "claim": 5730,
      "Ġdisk": 5731,
      "scri": 5732,
      "Ġ2004": 5733,
      "ricao": 5734,
      "ĠaryPrfTc": 5735,
      "rupt": 5736,
      "Ġtechniques": 5737,
      "NAME": 5738,
      "Ġfoods": 5739,
      "https": 5740,
      "Ġjobs": 5741,
      "Ġdegrees": 5742,
      "sqrt": 5743,
      "ï¼Į": 5744,
      "Ġcomparison": 5745,
      "Ġdoub": 5746,
      "Ġescape": 5747,
      "Ġbacteria": 5748,
      "wsgi": 5749,
      "*)": 5750,
      ":%": 5751,
      "Be": 5752,
      "FI": 5753,
      "iology": 5754,
      "pc": 5755,
      "sudo": 5756,
      "alking": 5757,
      "Ġfair": 5758,
      "stats": 5759,
      "asion": 5760,
      "Ġhope": 5761,
      "Ġstra": 5762,
      "ogen": 5763,
      "ĠBecause": 5764,
      "ĠOpen": 5765,
      "Ġnumerous": 5766,
      "Ġworked": 5767,
      "Ġsubprocess": 5768,
      "ĠConfig": 5769,
      "Ġcompany": 5770,
      "Ġpolice": 5771,
      "ĠAmericans": 5772,
      "Ġdiscrim": 5773,
      "Prm": 5774,
      "Ġeconomy": 5775,
      "Params": 5776,
      "Ġpurpose": 5777,
      "Ã§Ã£o": 5778,
      "Ĥ¬ìĹħ": 5779,
      "ĠOctober": 5780,
      "Ġsql": 5781,
      "Ġcommercial": 5782,
      "HA": 5783,
      "house": 5784,
      "Ġaward": 5785,
      "Ġfight": 5786,
      "secret": 5787,
      "rian": 5788,
      "ĠMc": 5789,
      "Ġrise": 5790,
      "ĠGra": 5791,
      "Ġtraffic": 5792,
      "Exp": 5793,
      "Ġbuffer": 5794,
      "ĠProject": 5795,
      "Ġgrad": 5796,
      "Ġcommunication": 5797,
      "Print": 5798,
      "Ġsolid": 5799,
      "ordinates": 5800,
      "Ġthinking": 5801,
      "temp": 5802,
      "docs": 5803,
      "Ġemployment": 5804,
      "ìĿ´": 5805,
      "ĠAfrica": 5806,
      "ĠAttributeError": 5807,
      "Sc": 5808,
      "dates": 5809,
      "ees": 5810,
      "miss": 5811,
      "wide": 5812,
      "xdo": 5813,
      "}\\": 5814,
      "ini": 5815,
      "onic": 5816,
      "ength": 5817,
      "Ġcand": 5818,
      "itler": 5819,
      "Ġborn": 5820,
      "Ġmessages": 5821,
      "etch": 5822,
      "etrie": 5823,
      "Ġeg": 5824,
      "ĠTODO": 5825,
      "Ġstay": 5826,
      "verbose": 5827,
      "ĠSam": 5828,
      "ria": 5829,
      "ects": 5830,
      "Ġbyte": 5831,
      "ĠGreat": 5832,
      "Ġunless": 5833,
      "Ġstrict": 5834,
      "Ġstrugg": 5835,
      "application": 5836,
      "Ġgoes": 5837,
      "container": 5838,
      "Ġpolar": 5839,
      "Ġ{}\".": 5840,
      "groups": 5841,
      "Ġexperi": 5842,
      "Ġremained": 5843,
      "Ġnegot": 5844,
      "clean": 5845,
      "document": 5846,
      "Ġcalculate": 5847,
      "Ġhistorical": 5848,
      "cursive": 5849,
      "Hand": 5850,
      "iat": 5851,
      "pool": 5852,
      "warn": 5853,
      "åĪ": 5854,
      "ìĭ": 5855,
      "Ġut": 5856,
      "Ġcert": 5857,
      "elines": 5858,
      "Ġdivid": 5859,
      "leaf": 5860,
      "Ġlin": 5861,
      "ifically": 5862,
      "ĠSk": 5863,
      "Ġconv": 5864,
      "ĠCre": 5865,
      "agraph": 5866,
      "âĢ¢": 5867,
      "Ġ:]": 5868,
      "ĠError": 5869,
      "ĠWhe": 5870,
      "Ġplt": 5871,
      "osexual": 5872,
      "enses": 5873,
      "logical": 5874,
      "counter": 5875,
      "ĠAsia": 5876,
      "Ġcarried": 5877,
      "Ġauto": 5878,
      "Ġradiation": 5879,
      "ĠModel": 5880,
      "ĠFebruary": 5881,
      "'\\": 5882,
      "({": 5883,
      "iance": 5884,
      "zone": 5885,
      "inson": 5886,
      "Ġpick": 5887,
      "Ġwood": 5888,
      "Ġinsect": 5889,
      "enty": 5890,
      "Ġnx": 5891,
      "amer": 5892,
      "img": 5893,
      "agement": 5894,
      "loco": 5895,
      "endswith": 5896,
      "ĠFil": 5897,
      "Ġshut": 5898,
      "ĠOff": 5899,
      "ownload": 5900,
      "Ġ194": 5901,
      "ĠĠĠĠĠĠĠĠĠĠĠĠĠĠĠĠĠĠĠĠĠĠĠĠĠĠĠĠĠĠĠĠĠĠĠĠ": 5902,
      "Ġsomeone": 5903,
      "Ġ2000": 5904,
      "Ġlocations": 5905,
      "numbers": 5906,
      "Ġexpress": 5907,
      "Ġdeliver": 5908,
      "Config": 5909,
      "Ġrepresenting": 5910,
      "Ġfriend": 5911,
      "Ġcitizens": 5912,
      "\").": 5913,
      "68": 5914,
      "App": 5915,
      "Test": 5916,
      "nan": 5917,
      "ê³": 5918,
      "Ġpen": 5919,
      "elements": 5920,
      "Ġbodies": 5921,
      "Ġtold": 5922,
      "Ġlanguages": 5923,
      "otic": 5924,
      "images": 5925,
      "Ġ'\\": 5926,
      "ĠSpace": 5927,
      "osen": 5928,
      "ĠFunction": 5929,
      "Ġsudo": 5930,
      "ĠDirect": 5931,
      "ĠHand": 5932,
      "Ġ22": 5933,
      "apsh": 5934,
      "Ġleaves": 5935,
      "ĠJud": 5936,
      "Ġkeyword": 5937,
      "Ġdifferences": 5938,
      "Ġ2002": 5939,
      "Ġpoly": 5940,
      "ĠArg": 5941,
      "Ġenter": 5942,
      "Ġconnected": 5943,
      "Ġcompleted": 5944,
      "relation": 5945,
      "Ġperformed": 5946,
      "Ġaccepted": 5947,
      "Ġprepared": 5948,
      "Ġfruit": 5949,
      "ĠPeople": 5950,
      "Ġspirit": 5951,
      "Des": 5952,
      "MS": 5953,
      "Node": 5954,
      "Ph": 5955,
      "Value": 5956,
      "equ": 5957,
      "jac": 5958,
      "nov": 5959,
      "zy": 5960,
      "Ġtalk": 5961,
      "Ġwa": 5962,
      "elist": 5963,
      "Ġdro": 5964,
      "Ġrender": 5965,
      "illeg": 5966,
      "seg": 5967,
      "sequence": 5968,
      "ĠBay": 5969,
      "Ġintellectual": 5970,
      "Ġresulting": 5971,
      "Ġrecip": 5972,
      "Ġ2003": 5973,
      "Ġextent": 5974,
      "Ġextrem": 5975,
      "Ġincreases": 5976,
      "Number": 5977,
      "Ġtechnologies": 5978,
      "Ġbasestring": 5979,
      "points": 5980,
      "ĠCollege": 5981,
      "Ġhttps": 5982,
      "specific": 5983,
      "ĠService": 5984,
      "sorted": 5985,
      "ĠAfrican": 5986,
      "Ġfixed": 5987,
      "Ġopportunity": 5988,
      "Ġhabitat": 5989,
      "Ġequivalent": 5990,
      "61": 5991,
      "Trans": 5992,
      "iations": 5993,
      "}\".": 5994,
      "ãĢ": 5995,
      "Ġmention": 5996,
      "Ġtool": 5997,
      "Ġtowards": 5998,
      "Ġnull": 5999,
      "Ġconservation": 6000,
      "Ġconstruction": 6001,
      "ĠMem": 6002,
      "ĠPen": 6003,
      "thread": 6004,
      "threads": 6005,
      "ĠDan": 6006,
      "Ġweak": 6007,
      "']['": 6008,
      "ysical": 6009,
      "Ġpartners": 6010,
      "Ġmedicine": 6011,
      "issue": 6012,
      "Ġidentified": 6013,
      "reshape": 6014,
      "Ġinterested": 6015,
      "Ġtypically": 6016,
      "ĠCanad": 6017,
      "which": 6018,
      "Ġlaunch": 6019,
      "Ġchemicals": 6020,
      "ĠMuslims": 6021,
      "ĠHTTP": 6022,
      "Ġmachine": 6023,
      "59": 6024,
      "acl": 6025,
      "ga": 6026,
      "hemat": 6027,
      "reme": 6028,
      "eries": 6029,
      "Ġsch": 6030,
      "Ġdic": 6031,
      "Ġhyp": 6032,
      "ĠSu": 6033,
      "Ġcoming": 6034,
      ")).": 6035,
      "ĠLin": 6036,
      "Ġrain": 6037,
      "elled": 6038,
      "ĠInformation": 6039,
      "ĠKore": 6040,
      "Ġ300": 6041,
      "ologist": 6042,
      "Ġoffers": 6043,
      "forward": 6044,
      "Ġdrink": 6045,
      "Ġnegate": 6046,
      "Ġmarriage": 6047,
      "Ġtrees": 6048,
      "Ġprofessor": 6049,
      "Def": 6050,
      "Ġadults": 6051,
      "FAULT": 6052,
      "Ġfossil": 6053,
      "æĸĩ": 6054,
      "AB": 6055,
      "Find": 6056,
      "Hrf": 6057,
      "New": 6058,
      "ih": 6059,
      "joy": 6060,
      "mut": 6061,
      "Ġactions": 6062,
      "Ġnav": 6063,
      "Ġstage": 6064,
      "Ġstdout": 6065,
      "Ġexposed": 6066,
      "ĠMa": 6067,
      "cker": 6068,
      "ĠDuring": 6069,
      "Ġ28": 6070,
      "clude": 6071,
      "itions": 6072,
      "ĠIndex": 6073,
      "Info": 6074,
      "Ġoffice": 6075,
      "Ġgeneration": 6076,
      "Ġdecades": 6077,
      "Ġsigns": 6078,
      "Ġidentity": 6079,
      "Ġdidn": 6080,
      "interval": 6081,
      "Ġ2013": 6082,
      "Ġguid": 6083,
      "repo": 6084,
      "ĠWestern": 6085,
      "Ġheavy": 6086,
      "04": 6087,
      "=['": 6088,
      "Ab": 6089,
      "IO": 6090,
      "Lgc": 6091,
      "Size": 6092,
      "cor": 6093,
      "move": 6094,
      "single": 6095,
      "yond": 6096,
      "hens": 6097,
      "Ġcities": 6098,
      "Ġdip": 6099,
      "Ġmoving": 6100,
      "Ġtok": 6101,
      "deed": 6102,
      "Ġbeyond": 6103,
      "ĠMiddle": 6104,
      "ĠPM": 6105,
      "ĠPublic": 6106,
      "ĠEven": 6107,
      "ĠĠĠĠĠĠĠĠĠĠĠĠĠĠĠĠĠĠĠĠĠĠĠĠĠĠĠĠĠĠĠĠĠĠĠĠĠĠĠĠĠĠĠ": 6108,
      "counts": 6109,
      "Ġobserv": 6110,
      "entials": 6111,
      "Ġorganizations": 6112,
      "Ġlegisl": 6113,
      "ĠInternet": 6114,
      "Ġancest": 6115,
      "Ġcapture": 6116,
      "ĠIdentifier": 6117,
      "raints": 6118,
      "bif": 6119,
      "dh": 6120,
      "ios": 6121,
      "nel": 6122,
      "tipo": 6123,
      "rev": 6124,
      "atom": 6125,
      "ena": 6126,
      "Ġcore": 6127,
      "arter": 6128,
      "Ġfavor": 6129,
      "Ġdrop": 6130,
      "Ġgalax": 6131,
      "Ġconverted": 6132,
      "ester": 6133,
      "ĠUnder": 6134,
      "ĠJon": 6135,
      "ugins": 6136,
      "ĠArray": 6137,
      "Ġfindings": 6138,
      "Ġapproaches": 6139,
      "Ġpurch": 6140,
      "Ġvirtual": 6141,
      "Ġsquare": 6142,
      "sembly": 6143,
      "Ġemissions": 6144,
      "æĸĩä»¶": 6145,
      "PT": 6146,
      "den": 6147,
      "ruct": 6148,
      "¸ìĦľ": 6149,
      "Ġtum": 6150,
      "Ġmath": 6151,
      "urs": 6152,
      "igure": 6153,
      "Ġstorm": 6154,
      "Ġconcer": 6155,
      "Ġvary": 6156,
      "ĠNG": 6157,
      "ĠLat": 6158,
      "ĠThus": 6159,
      "Ġfund": 6160,
      "Ġcompre": 6161,
      "Ġskip": 6162,
      "Ġeventually": 6163,
      "Ġauthorities": 6164,
      "Ġstructures": 6165,
      "Ġphysic": 6166,
      "Unable": 6167,
      "Ġtemperatures": 6168,
      "Ġvolun": 6169,
      "Ġdouble": 6170,
      "Ġindustrial": 6171,
      "Loc": 6172,
      "]*": 6173,
      "ipping": 6174,
      "åı": 6175,
      "Ġcards": 6176,
      "Ġfaster": 6177,
      "Ġwrong": 6178,
      "Ġwitness": 6179,
      "Ġwrote": 6180,
      "Ġreached": 6181,
      "sep": 6182,
      "Ġgain": 6183,
      "Ġbeaut": 6184,
      "ĠCO": 6185,
      "odon": 6186,
      "ĠNovember": 6187,
      "exit": 6188,
      "ĠDar": 6189,
      "ĠDiv": 6190,
      "Ġcharg": 6191,
      "0000": 6192,
      "Ġunits": 6193,
      "usters": 6194,
      "Ġweights": 6195,
      "ĠInit": 6196,
      "Ġserial": 6197,
      "lick": 6198,
      "poses": 6199,
      "addr": 6200,
      "Ġindices": 6201,
      "registry": 6202,
      "ollowing": 6203,
      "Ġoperator": 6204,
      "Ġoccurred": 6205,
      "system": 6206,
      "Ġpractices": 6207,
      "Ġtrend": 6208,
      "Ġturned": 6209,
      "IPv": 6210,
      "Ġvirus": 6211,
      "aneous": 6212,
      "ĠGermany": 6213,
      "Ġreleased": 6214,
      "Ġharvest": 6215,
      "Ġrecommend": 6216,
      "Ġnuclear": 6217,
      "ĠVirgin": 6218,
      "ĠGovernment": 6219,
      "ĠEducation": 6220,
      "76": 6221,
      "molec": 6222,
      "rl": 6223,
      "wrap": 6224,
      "¥ë": 6225,
      "ê´": 6226,
      "Ġwoman": 6227,
      "icated": 6228,
      "Ġrepro": 6229,
      "Ġlived": 6230,
      "Ġgiving": 6231,
      "ĠCall": 6232,
      "reset": 6233,
      "Ġseed": 6234,
      "ffff": 6235,
      "ĠJer": 6236,
      "Ġprev": 6237,
      "Ġsyn": 6238,
      "ĠChurch": 6239,
      "ifications": 6240,
      "__.__": 6241,
      "Ġdistrict": 6242,
      "Ġdistinct": 6243,
      "Ġproperly": 6244,
      "Ġorganisms": 6245,
      "Ġappears": 6246,
      "Ġbelieved": 6247,
      "Ġpreviously": 6248,
      "Ġbalance": 6249,
      "Ġfaith": 6250,
      "osophy": 6251,
      "Ġcontrast": 6252,
      "Detail": 6253,
      "AS": 6254,
      "Ind": 6255,
      "Now": 6256,
      "br": 6257,
      "found": 6258,
      "hma": 6259,
      "random": 6260,
      "ĠÃ": 6261,
      "rewrite": 6262,
      "Ġpull": 6263,
      "Ġwin": 6264,
      "Ġwarn": 6265,
      "Ġinstr": 6266,
      "Ġbra": 6267,
      "Ġbattle": 6268,
      "iful": 6269,
      "imer": 6270,
      "ested": 6271,
      "Ġexcess": 6272,
      "Ġ:,": 6273,
      "example": 6274,
      "parts": 6275,
      "Ġletters": 6276,
      "Ġsym": 6277,
      "Ġadding": 6278,
      "Ġ2001": 6279,
      "Ġ500": 6280,
      "Ġopened": 6281,
      "Ġdetect": 6282,
      "Ġgrand": 6283,
      "ĠEngland": 6284,
      "Ġexceptions": 6285,
      "Ġsuggests": 6286,
      "Ġimpacts": 6287,
      "hetic": 6288,
      "Ġintroduced": 6289,
      "Ġaspects": 6290,
      "ĠOSError": 6291,
      "ĠCounty": 6292,
      "NotFoundError": 6293,
      "ĦìĨ¡": 6294,
      "Ĥ¬ìĹħìŀĲ": 6295,
      "55": 6296,
      "={": 6297,
      "GI": 6298,
      "Rec": 6299,
      "bits": 6300,
      "hits": 6301,
      "mas": 6302,
      "help": 6303,
      "Ġpow": 6304,
      "Ġinsp": 6305,
      "ette": 6306,
      "ams": 6307,
      "async": 6308,
      "Ġconvention": 6309,
      "irs": 6310,
      "ĠMex": 6311,
      "ĠMich": 6312,
      "Ġsufficient": 6313,
      "ĠEquipment": 6314,
      "ogle": 6315,
      "ĠHen": 6316,
      "apes": 6317,
      "Ġperman": 6318,
      "Ġroyal": 6319,
      "show": 6320,
      "logging": 6321,
      "ĠSea": 6322,
      "ĠìĤ¬ìĹħìŀĲ": 6323,
      "ancer": 6324,
      "ĠQue": 6325,
      "Ġrepresentation": 6326,
      "Ġpromote": 6327,
      "Ġhappens": 6328,
      "Ġipv": 6329,
      "Ġincor": 6330,
      "sql": 6331,
      "Ġdiscover": 6332,
      "Hel": 6333,
      "Sd": 6334,
      "main": 6335,
      "public": 6336,
      "sampled": 6337,
      "Ġnorthern": 6338,
      "Ġstim": 6339,
      "lov": 6340,
      "ĠMET": 6341,
      "ĠTheir": 6342,
      "orted": 6343,
      "ĠFin": 6344,
      "']))": 6345,
      "Ġcolon": 6346,
      "Ġparsed": 6347,
      "Ġworker": 6348,
      "Ġregions": 6349,
      "Ġoverall": 6350,
      "Ġstudied": 6351,
      "Ġrelatively": 6352,
      "____": 6353,
      "rics": 6354,
      "Ġassume": 6355,
      "ĠArch": 6356,
      "ributed": 6357,
      "ĠIndicator": 6358,
      "While": 6359,
      "Ġproteins": 6360,
      "Validation": 6361,
      "Builder": 6362,
      "ĠCommandError": 6363,
      "66": 6364,
      "78": 6365,
      "Ġsaved": 6366,
      "Ġcro": 6367,
      "Ġpadding": 6368,
      "icial": 6369,
      "Ġefficient": 6370,
      "imetype": 6371,
      "igen": 6372,
      "ĠPaul": 6373,
      "ĠRoman": 6374,
      "ĠDay": 6375,
      "ĠBra": 6376,
      "Ġseven": 6377,
      "('\\": 6378,
      "permission": 6379,
      "Ġkilled": 6380,
      "Ġabstract": 6381,
      "Ġfunding": 6382,
      "Ġinterpret": 6383,
      "Ġliber": 6384,
      "dictionary": 6385,
      "iox": 6386,
      "State": 6387,
      "Ġexpert": 6388,
      "Ġmultip": 6389,
      "Ġblocks": 6390,
      "Ġsummary": 6391,
      "weight": 6392,
      "criptor": 6393,
      "children": 6394,
      "ĠCharles": 6395,
      "properties": 6396,
      "ê´Ģ": 6397,
      "CH": 6398,
      "cert": 6399,
      "ean": 6400,
      "master": 6401,
      "rm": 6402,
      "Ġ~": 6403,
      "Ġilleg": 6404,
      "eration": 6405,
      "Ġsalt": 6406,
      "Ġeffic": 6407,
      "Ġgir": 6408,
      "Ġglob": 6409,
      "Ġstation": 6410,
      "ĠAust": 6411,
      "ithub": 6412,
      "riz": 6413,
      "osa": 6414,
      "ĠFederal": 6415,
      "ĠHIV": 6416,
      "ĠHitler": 6417,
      "Ġarm": 6418,
      "Ġarmy": 6419,
      "ĠWol": 6420,
      "strPath": 6421,
      "ellig": 6422,
      "Ġaccom": 6423,
      "Ġlisten": 6424,
      "ificador": 6425,
      "Ġcursor": 6426,
      "Ġ45": 6427,
      "icks": 6428,
      "Ġencoded": 6429,
      "Ġclosed": 6430,
      "Ġviews": 6431,
      "rief": 6432,
      "Ġbiological": 6433,
      "ĠGeorge": 6434,
      "Ġpicture": 6435,
      "dataset": 6436,
      "Ġapproximately": 6437,
      "Ġslightly": 6438,
      "ê´Ģë¦¬": 6439,
      "Names": 6440,
      "Optional": 6441,
      "Vol": 6442,
      "fin": 6443,
      "iable": 6444,
      "Ġtpl": 6445,
      "Ġsing": 6446,
      "orial": 6447,
      "alias": 6448,
      "Ġpun": 6449,
      "Ġworth": 6450,
      "ingu": 6451,
      "Ġmo": 6452,
      "ste": 6453,
      "Ġreform": 6454,
      "ĠAng": 6455,
      "iring": 6456,
      "apers": 6457,
      "Ġplans": 6458,
      "ĠVol": 6459,
      "Ġcollab": 6460,
      "Ġmanage": 6461,
      "Ġmeeting": 6462,
      "atters": 6463,
      "Ġembed": 6464,
      "poss": 6465,
      "Ġsurvey": 6466,
      "Ġcontinu": 6467,
      "tokens": 6468,
      "Ġoperating": 6469,
      "Ġretrie": 6470,
      "Ġplanning": 6471,
      "Conn": 6472,
      "Ġnamespace": 6473,
      "Ġlayers": 6474,
      "Ġbrother": 6475,
      "Ġdomin": 6476,
      "domain": 6477,
      "Ġmolecules": 6478,
      "deredDict": 6479,
      "Ġcomponents": 6480,
      "Ġwestern": 6481,
      "ĠWhether": 6482,
      "CD": 6483,
      "Rsp": 6484,
      "Te": 6485,
      "fall": 6486,
      "greg": 6487,
      "grid": 6488,
      "iate": 6489,
      "js": 6490,
      "}:": 6491,
      "âķ": 6492,
      "rew": 6493,
      "Ġsbjct": 6494,
      "isi": 6495,
      "Ġfert": 6496,
      "Ġdire": 6497,
      "ille": 6498,
      "chars": 6499,
      "istan": 6500,
      "Ġasset": 6501,
      "ĠName": 6502,
      "Ġnotes": 6503,
      "ĠFore": 6504,
      "ĠDem": 6505,
      "Ġelems": 6506,
      "peror": 6507,
      "Ġ-=": 6508,
      "'][": 6509,
      "Ġmeant": 6510,
      "Ġagre": 6511,
      "Ġcalling": 6512,
      "ĠaryFunc": 6513,
      "Ġgravel": 6514,
      "Ġremaining": 6515,
      "Ġindicator": 6516,
      "ĠMedical": 6517,
      "Ġabsolute": 6518,
      "Ġlearned": 6519,
      "Ġchoice": 6520,
      "Ġfrequently": 6521,
      "ippr": 6522,
      "total": 6523,
      "Ġatmosphere": 6524,
      "ĠCourt": 6525,
      "ĠFoundation": 6526,
      "Call": 6527,
      "Web": 6528,
      "ford": 6529,
      "job": 6530,
      "mag": 6531,
      "pred": 6532,
      "soup": 6533,
      "Ġic": 6534,
      "Ĳĺì": 6535,
      "Ġtour": 6536,
      "Ġsin": 6537,
      "enames": 6538,
      "itors": 6539,
      "Ġnii": 6540,
      "Ġstem": 6541,
      "Ġ'{}": 6542,
      "Ġexit": 6543,
      "ĠFastly": 6544,
      "ĠJes": 6545,
      "ĠInst": 6546,
      "Ġscatter": 6547,
      "Ġsets": 6548,
      "Ġsetup": 6549,
      "Ġnovel": 6550,
      "rences": 6551,
      "Ġinterval": 6552,
      "pective": 6553,
      "Ġ400": 6554,
      "returns": 6555,
      "ĠYour": 6556,
      "Ġtransfer": 6557,
      "Ġ80": 6558,
      "Ġlimits": 6559,
      "Ġkept": 6560,
      "Register": 6561,
      "Returns": 6562,
      "Ġeyes": 6563,
      "Ġarchitect": 6564,
      "Ġvillage": 6565,
      "Ġpiece": 6566,
      "ĠFranc": 6567,
      "Ġprinciples": 6568,
      "lookup": 6569,
      "ĠCongress": 6570,
      "ìĿ´ë": 6571,
      "'ll": 6572,
      "88": 6573,
      "After": 6574,
      "Version": 6575,
      "Ġtrib": 6576,
      "height": 6577,
      "Ġfresh": 6578,
      "Ġdy": 6579,
      "channel": 6580,
      "heric": 6581,
      "Ġhed": 6582,
      "Ġ27": 6583,
      "ĠGre": 6584,
      "Ġshared": 6585,
      "Ġadjust": 6586,
      "(\"%": 6587,
      "ĠVIP": 6588,
      "Ġgenus": 6589,
      "Ġsettle": 6590,
      "Ġserved": 6591,
      "ĠIts": 6592,
      "Ġformation": 6593,
      "Ġanyone": 6594,
      "modules": 6595,
      "coordinates": 6596,
      "Ġdecor": 6597,
      "Ġrefresh": 6598,
      "Ġenvironments": 6599,
      "Ġpowerful": 6600,
      "Ġboard": 6601,
      "Ġoccurrences": 6602,
      "Ġchanging": 6603,
      "Ġ1990": 6604,
      "culate": 6605,
      "Ġpolicies": 6606,
      "package": 6607,
      "ĺìĬµëĭĪëĭ¤": 6608,
      "ìķĺìĬµëĭĪëĭ¤": 6609,
      "Ġìŀħë": 6610,
      "aughter": 6611,
      "ĠìķĬìķĺìĬµëĭĪëĭ¤": 6612,
      "Ġìŀħëł": 6613,
      "63": 6614,
      "cel": 6615,
      "iated": 6616,
      "lap": 6617,
      "atial": 6618,
      "Ġsen": 6619,
      "Ġphen": 6620,
      "Ġtomat": 6621,
      "Ġnations": 6622,
      "role": 6623,
      "ĠGreen": 6624,
      "(\"/": 6625,
      "Ġresulted": 6626,
      "Ġmanner": 6627,
      "ship": 6628,
      "Ġmostly": 6629,
      "Ġreads": 6630,
      "Ġsurg": 6631,
      "Ġzone": 6632,
      "ĠProf": 6633,
      "ĠExt": 6634,
      "Ġbreast": 6635,
      "ĠEnergy": 6636,
      "Ġloaded": 6637,
      "summary": 6638,
      "Ġclearly": 6639,
      "Ġchoose": 6640,
      "structions": 6641,
      "Ġletter": 6642,
      "Ġwidely": 6643,
      "Ġextremely": 6644,
      "ĠCanadian": 6645,
      "¥ëĲĺì": 6646,
      "Ġìŀħëł¥ëĲĺì": 6647,
      "Ġìŀħëł¥ëĲĺì§Ģ": 6648,
      "\"%": 6649,
      "CL": 6650,
      "DP": 6651,
      "GB": 6652,
      "IST": 6653,
      "Wrapper": 6654,
      "core": 6655,
      "dumps": 6656,
      "grad": 6657,
      "zen": 6658,
      "Ġfif": 6659,
      "Ġpair": 6660,
      "Ġwatch": 6661,
      "Ġmoved": 6662,
      "Ġonto": 6663,
      "Ġelection": 6664,
      "ĠHung": 6665,
      "Ġchannel": 6666,
      "acing": 6667,
      "Ġintended": 6668,
      "ĠOf": 6669,
      "Ġupload": 6670,
      "âĢĿ.": 6671,
      "awn": 6672,
      "ĠĠĠĠĠĠĠĠĠĠĠĠčĊ": 6673,
      "Ġfamous": 6674,
      "ATE": 6675,
      "Ġ90": 6676,
      "Ġselection": 6677,
      "Any": 6678,
      "ĠEnvironmental": 6679,
      "Inter": 6680,
      "Ġprecision": 6681,
      "Ġrecommended": 6682,
      "Ġobtained": 6683,
      "aussian": 6684,
      "ê´Ģë¦¬ë²Īíĺ¸": 6685,
      "BS": 6686,
      "CA": 6687,
      "OL": 6688,
      "Sim": 6689,
      "bach": 6690,
      "cd": 6691,
      "fill": 6692,
      "uan": 6693,
      "inations": 6694,
      "alo": 6695,
      "etics": 6696,
      "std": 6697,
      "Ġforced": 6698,
      "Ġstock": 6699,
      "ĠSur": 6700,
      "ĠMil": 6701,
      "exas": 6702,
      "Ġrich": 6703,
      "ĠFal": 6704,
      "ĠHel": 6705,
      "antic": 6706,
      "Ġdisorder": 6707,
      "Ġprison": 6708,
      "Ġserve": 6709,
      "Input": 6710,
      "Ġready": 6711,
      "general": 6712,
      "Ġcommonly": 6713,
      "Ġtried": 6714,
      "Ġresponses": 6715,
      "Ġdepending": 6716,
      "Ġiterable": 6717,
      "ĠIII": 6718,
      "Ġopportunities": 6719,
      "safe": 6720,
      "Ġautomatically": 6721,
      "è¯¾": 6722,
      "gorith": 6723,
      "49": 6724,
      "Hist": 6725,
      "TO": 6726,
      "][\"": 6727,
      "fold": 6728,
      "ras": 6729,
      "success": 6730,
      "inity": 6731,
      "reet": 6732,
      "eno": 6733,
      "ito": 6734,
      "Ġbone": 6735,
      "Ġbind": 6736,
      "Ġles": 6737,
      "iform": 6738,
      "uled": 6739,
      "ĠIPA": 6740,
      "ĠCap": 6741,
      "Ġexhib": 6742,
      "ĠNatural": 6743,
      "Ġnoted": 6744,
      "ĠMD": 6745,
      "Ġelimin": 6746,
      "aped": 6747,
      "Ġcontem": 6748,
      "Ġenjoy": 6749,
      "Ġdespite": 6750,
      "prop": 6751,
      "Ġspring": 6752,
      "Ġformatt": 6753,
      "cols": 6754,
      "scape": 6755,
      "ĠConn": 6756,
      "Ġhelped": 6757,
      "Ġmatched": 6758,
      "ĠResponse": 6759,
      "feature": 6760,
      "Ġgrid": 6761,
      "Ġpresented": 6762,
      "Ġsuccessfully": 6763,
      "Ġdescribe": 6764,
      "Ġwildlife": 6765,
      "Ġinstalled": 6766,
      "layout": 6767,
      "Ġviolence": 6768,
      "Ġtouch": 6769,
      "ĠEmpire": 6770,
      "\"],": 6771,
      "See": 6772,
      "dim": 6773,
      "lig": 6774,
      "nome": 6775,
      "window": 6776,
      "}.": 6777,
      "ĦìĿ´ë": 6778,
      "erator": 6779,
      "Ġsrc": 6780,
      "Ġsector": 6781,
      "Ġou": 6782,
      "Ġwaste": 6783,
      "Ġduplic": 6784,
      "eted": 6785,
      "Ġrenew": 6786,
      "ĠTer": 6787,
      "ĠTur": 6788,
      "ĠTime": 6789,
      "Ġstories": 6790,
      "ĠScript": 6791,
      "Ġvision": 6792,
      "Ġcompl": 6793,
      "Ġreset": 6794,
      "Ġarrest": 6795,
      "Ġweap": 6796,
      "Ġdisable": 6797,
      "scrib": 6798,
      "byte": 6799,
      "Ġterrit": 6800,
      "erests": 6801,
      "Ġspeech": 6802,
      "Ġ1995": 6803,
      "ĠCentral": 6804,
      "ĠOrgan": 6805,
      "Ġtasks": 6806,
      "Ġfrequency": 6807,
      "Ġcycle": 6808,
      "Ġeastern": 6809,
      "Ġprofessional": 6810,
      "Ġpollution": 6811,
      "ĦìĿ´ëĶĶ": 6812,
      "03": 6813,
      "LL": 6814,
      "Tem": 6815,
      "bor": 6816,
      "dimension": 6817,
      "iant": 6818,
      "rations": 6819,
      "Ã³": 6820,
      "æķ": 6821,
      "orph": 6822,
      "esc": 6823,
      "Ġfro": 6824,
      "unit": 6825,
      "ados": 6826,
      "istant": 6827,
      "expected": 6828,
      "ĠBel": 6829,
      "Ġship": 6830,
      "Ġunivers": 6831,
      "Ġliqu": 6832,
      "Ġcounts": 6833,
      "Ġindent": 6834,
      "Ġends": 6835,
      "Ġsupplied": 6836,
      "Ġassigned": 6837,
      "Ġpresident": 6838,
      "Ġsurpr": 6839,
      "Ġopin": 6840,
      "Ġobvious": 6841,
      "Ġlooks": 6842,
      "ATION": 6843,
      "Ġetree": 6844,
      "Ġinspect": 6845,
      "Ġreduction": 6846,
      "Ġswitch": 6847,
      "ĠColor": 6848,
      "require": 6849,
      "Ġcriteria": 6850,
      "Ġhyper": 6851,
      "ographic": 6852,
      "ĠContent": 6853,
      "Ġtranslated": 6854,
      "break": 6855,
      "going": 6856,
      "Ġvehicles": 6857,
      "Ġkidney": 6858,
      "Ġdiscrimination": 6859,
      "lovak": 6860,
      "My": 6861,
      "Many": 6862,
      "Sze": 6863,
      "XT": 6864,
      "di": 6865,
      "free": 6866,
      "mble": 6867,
      "Ġconver": 6868,
      "Ġprohib": 6869,
      "ĠMuseum": 6870,
      "Ġcomplic": 6871,
      "Ġrank": 6872,
      "ĠBen": 6873,
      "Ġju": 6874,
      "Ġmodules": 6875,
      "fered": 6876,
      "ishing": 6877,
      "prov": 6878,
      "Ġspin": 6879,
      "egin": 6880,
      "Ġcoal": 6881,
      "Ġremember": 6882,
      "othing": 6883,
      "Ġartifact": 6884,
      "ĠExample": 6885,
      "Ġexperts": 6886,
      "Ġgovernments": 6887,
      "relations": 6888,
      "Ġsomew": 6889,
      "Ġmeasured": 6890,
      "Ġinvolve": 6891,
      "Ġexplain": 6892,
      "Ġmotion": 6893,
      "Ġdomestic": 6894,
      "Ġimmune": 6895,
      "Class": 6896,
      "ĠSocial": 6897,
      "Ġrelevant": 6898,
      "However": 6899,
      "ĠParkinson": 6900,
      "ĠHTML": 6901,
      "ervation": 6902,
      "Ġemergency": 6903,
      "Ġcircum": 6904,
      "ĠOutput": 6905,
      "ĠChildren": 6906,
      "Ġadvantage": 6907,
      ")-": 6908,
      "Most": 6909,
      "Of": 6910,
      "PUT": 6911,
      "Sts": 6912,
      "ipped": 6913,
      "mak": 6914,
      "meth": 6915,
      "sur": 6916,
      "yc": 6917,
      "Ġtele": 6918,
      "Ġcsv": 6919,
      "Ġwall": 6920,
      "Ġwww": 6921,
      "Ġren": 6922,
      "Ġreality": 6923,
      "ros": 6924,
      "Ġhuge": 6925,
      "Ġisol": 6926,
      "ĠSum": 6927,
      "agram": 6928,
      "ĠDO": 6929,
      "ĠLou": 6930,
      "Ġimg": 6931,
      "ĠOur": 6932,
      "ibling": 6933,
      "coming": 6934,
      "Ġscore": 6935,
      "Ġperfect": 6936,
      "filepath": 6937,
      "Ġhelping": 6938,
      "prep": 6939,
      "ĠCommission": 6940,
      "Ġprotocol": 6941,
      "ĠIsland": 6942,
      ":`~": 6943,
      "Process": 6944,
      "Ġcharacteristics": 6945,
      "Ġimproved": 6946,
      "ĠValidation": 6947,
      "expand": 6948,
      "Ġclaims": 6949,
      "Ġconsumption": 6950,
      "Ġprepare": 6951,
      "Ġdiscussed": 6952,
      "Ġhoriz": 6953,
      "Model": 6954,
      "Ġpieces": 6955,
      "ĠRemove": 6956,
      "Ġwatershed": 6957,
      "ĠMudejar": 6958,
      "Ġcategory": 6959,
      "pressure": 6960,
      "ãĢĤ": 6961,
      "TH": 6962,
      "]+": 6963,
      "bel": 6964,
      "dou": 6965,
      "ders": 6966,
      "lisher": 6967,
      "ë³": 6968,
      "Ġaim": 6969,
      "Ġinner": 6970,
      "Ġbits": 6971,
      "ĠTexas": 6972,
      "adow": 6973,
      "Ġconversion": 6974,
      "rome": 6975,
      "ĠDi": 6976,
      "ĠWild": 6977,
      "ĠWindows": 6978,
      "Ġrac": 6979,
      "ĠKh": 6980,
      "atten": 6981,
      "Ġcounty": 6982,
      "__(": 6983,
      "icking": 6984,
      "pring": 6985,
      "Ġassign": 6986,
      "Ġdelay": 6987,
      "Ġdirector": 6988,
      "Ġshowing": 6989,
      "Ġmathemat": 6990,
      "amental": 6991,
      "Ġinfected": 6992,
      "Ġpositions": 6993,
      "Ġindicates": 6994,
      "Ġcoordinate": 6995,
      "Ġconcepts": 6996,
      "Ġexactly": 6997,
      "Ġtrigger": 6998,
      "Ġmembrane": 6999,
      "Ġpysv": 7000,
      "Mat": 7001,
      "dump": 7002,
      "direction": 7003,
      "fort": 7004,
      "gz": 7005,
      "lass": 7006,
      "well": 7007,
      "yclo": 7008,
      "Ġtun": 7009,
      "itory": 7010,
      "anz": 7011,
      "Ġdrought": 7012,
      "Ġmere": 7013,
      "Ġmaps": 7014,
      "Ġhour": 7015,
      "ceived": 7016,
      "olid": 7017,
      "ĠIO": 7018,
      "ĠNE": 7019,
      "ĠPat": 7020,
      "Ġ\"-": 7021,
      "Ġsuc": 7022,
      "ĠElement": 7023,
      "ĠBro": 7024,
      "Ġseeds": 7025,
      "ĠLife": 7026,
      "Ġ[\"": 7027,
      "Ġlogical": 7028,
      "Ġ1999": 7029,
      "Ġverify": 7030,
      "Ġmeat": 7031,
      "readout": 7032,
      "Ġservers": 7033,
      "__)": 7034,
      "Ġdecided": 7035,
      "Ġtested": 7036,
      "Stat": 7037,
      "Ġdefaults": 7038,
      "Ġcontinues": 7039,
      "Ġcorn": 7040,
      "Ġvalidation": 7041,
      "Ġorganized": 7042,
      "Ġplaceholder": 7043,
      "azard": 7044,
      "Ġtopics": 7045,
      "ĠAtl": 7046,
      "Ġdocumentation": 7047,
      "month": 7048,
      "Ġtimestamp": 7049,
      "Ġsignificantly": 7050,
      "Ġmeasurements": 7051,
      "ĠRussia": 7052,
      "destination": 7053,
      "Ġreferred": 7054,
      "Ġdivided": 7055,
      "09": 7056,
      "CR": 7057,
      "More": 7058,
      "aud": 7059,
      "clear": 7060,
      "given": 7061,
      "oke": 7062,
      "padding": 7063,
      "rection": 7064,
      "render": 7065,
      "Ġsections": 7066,
      "Ġfalse": 7067,
      "Ġwinter": 7068,
      "Ġinh": 7069,
      "Ġinser": 7070,
      "rot": 7071,
      "Ġger": 7072,
      "Ġasc": 7073,
      "ĠMal": 7074,
      "ĠPal": 7075,
      "ĠRetrie": 7076,
      "ĠEnc": 7077,
      "erer": 7078,
      "Ġ26": 7079,
      "Ġresistance": 7080,
      "Ġacade": 7081,
      "Ġprices": 7082,
      "Ġ31": 7083,
      "prot": 7084,
      "âĢĿ,": 7085,
      "Ġcurve": 7086,
      "Ġsubsequ": 7087,
      "login": 7088,
      "dirname": 7089,
      "Ġchecks": 7090,
      "Ġdocuments": 7091,
      "Ġencoura": 7092,
      "Ġtrials": 7093,
      "Ġmarine": 7094,
      "zech": 7095,
      "Ġeasier": 7096,
      "Ġhappen": 7097,
      "Ġabsor": 7098,
      "Ġscheme": 7099,
      "Ġprimarily": 7100,
      "Ġmolecular": 7101,
      "ortunately": 7102,
      "install": 7103,
      "ĠIslam": 7104,
      "ĠMudejars": 7105,
      "ĠGreek": 7106,
      "ocratic": 7107,
      "\"])": 7108,
      "AP": 7109,
      "Auth": 7110,
      "User": 7111,
      "tmp": 7112,
      "Ġfreedom": 7113,
      "Ġpaid": 7114,
      "Ġwarning": 7115,
      "Ġwrapped": 7116,
      "Ġbases": 7117,
      "stro": 7118,
      "Ġisland": 7119,
      "urname": 7120,
      "estalt": 7121,
      "Ġ\"\\": 7122,
      "that": 7123,
      "Ġran": 7124,
      "ĠDon": 7125,
      "indicator": 7126,
      "Ġclim": 7127,
      "ĠThom": 7128,
      "Ġroll": 7129,
      "creen": 7130,
      "reatment": 7131,
      "Ġspent": 7132,
      "Ġtrain": 7133,
      "Ġemot": 7134,
      "Ġoverwrite": 7135,
      "Ġamino": 7136,
      "Ġconsists": 7137,
      "Ġcompeting": 7138,
      "Ġstarts": 7139,
      "...')": 7140,
      "That": 7141,
      "ĠSecurity": 7142,
      "Ġprovider": 7143,
      "Ġowner": 7144,
      "ETE": 7145,
      "ondon": 7146,
      "Ġfacilities": 7147,
      "Ġrestore": 7148,
      "Ġbroken": 7149,
      "Ġrevolution": 7150,
      "Ġchoices": 7151,
      "Ġimplementation": 7152,
      "Ġattempts": 7153,
      "Ġcampaign": 7154,
      "Query": 7155,
      "ĠVirginia": 7156,
      "Ġpermanent": 7157,
      "=%": 7158,
      ">\\": 7159,
      "Cnt": 7160,
      "DO": 7161,
      "EE": 7162,
      "MO": 7163,
      "Min": 7164,
      "Util": 7165,
      "craft": 7166,
      "high": 7167,
      "ij": 7168,
      "Ġath": 7169,
      "Ġsounds": 7170,
      "Ġtherapy": 7171,
      "isco": 7172,
      "itter": 7173,
      "Ġfold": 7174,
      "Ġpray": 7175,
      "Ġlon": 7176,
      "Ġequip": 7177,
      "iding": 7178,
      "rair": 7179,
      "Ġordered": 7180,
      "âĢĺ": 7181,
      "ĠMill": 7182,
      "ĠMult": 7183,
      "ĠRich": 7184,
      "ĠEnd": 7185,
      "ĠElect": 7186,
      "ictor": 7187,
      "iction": 7188,
      "ĠKen": 7189,
      "attributes": 7190,
      "short": 7191,
      "scious": 7192,
      "Ġtransition": 7193,
      "need": 7194,
      "Ġrequested": 7195,
      "{}\".": 7196,
      "Ġeveryone": 7197,
      "Ġlookup": 7198,
      "Ġdetailed": 7199,
      "Ġreducing": 7200,
      "Ġbegins": 7201,
      "Ġeducational": 7202,
      "DEL": 7203,
      "Although": 7204,
      "transform": 7205,
      "Ġstripped": 7206,
      "Ġbehavi": 7207,
      "layer": 7208,
      "ĠAND": 7209,
      "ĠBuild": 7210,
      "Ġexplicitly": 7211,
      "Ġtuples": 7212,
      "ĠìĤ¬ìĹħìŀĲë²Īíĺ¸": 7213,
      "possible": 7214,
      "yclop": 7215,
      "77": 7216,
      "bing": 7217,
      "pres": 7218,
      "uuid": 7219,
      "vol": 7220,
      "xpath": 7221,
      "ê¸": 7222,
      "Ġice": 7223,
      "environ": 7224,
      "Ġplease": 7225,
      "Ġpairs": 7226,
      "Ġband": 7227,
      "Ġdoll": 7228,
      "Ġmarg": 7229,
      "iliation": 7230,
      "users": 7231,
      "abil": 7232,
      "ĠDeter": 7233,
      "anging": 7234,
      "icted": 7235,
      "Ġleader": 7236,
      "Ġgoals": 7237,
      "encing": 7238,
      "Ġtransmission": 7239,
      "Ġbuy": 7240,
      "ĠProcess": 7241,
      "Ġcausing": 7242,
      "Ġestimate": 7243,
      "standing": 7244,
      "lishing": 7245,
      "Ġ'.'": 7246,
      "ALL": 7247,
      "competing": 7248,
      "ĠAcade": 7249,
      "Ġcritic": 7250,
      "Ġkinds": 7251,
      "Ġannoun": 7252,
      "Ġroutine": 7253,
      "cosystem": 7254,
      "calibration": 7255,
      "ĠCarol": 7256,
      "Ġkingdom": 7257,
      "Ġmerge": 7258,
      "Ġsymbol": 7259,
      "Ġconcerned": 7260,
      "Ġratio": 7261,
      "claimed": 7262,
      "Ġexperienced": 7263,
      "ĠHenry": 7264,
      "98": 7265,
      "Dec": 7266,
      "Le": 7267,
      "nam": 7268,
      "patch": 7269,
      "rd": 7270,
      "rition": 7271,
      "vate": 7272,
      "Ġao": 7273,
      "Ġpou": 7274,
      "ami": 7275,
      "oma": 7276,
      "Ġconcl": 7277,
      "Ġalias": 7278,
      "osing": 7279,
      "Ġheard": 7280,
      "()))": 7281,
      "ĠLo": 7282,
      "oster": 7283,
      "Ġkm": 7284,
      "ĠJust": 7285,
      "Ġprice": 7286,
      "ĠSte": 7287,
      "Ġadds": 7288,
      "prec": 7289,
      "ĠWhy": 7290,
      "Ġ70": 7291,
      "Ġlinked": 7292,
      "Ġpatent": 7293,
      "Ġexcell": 7294,
      "ĠGoogle": 7295,
      "ĠBritain": 7296,
      "Ġrelationships": 7297,
      "Ġmorning": 7298,
      "Ġcredit": 7299,
      "Ġreplaced": 7300,
      "Ġelectrical": 7301,
      "ĠArguments": 7302,
      "ĠLouis": 7303,
      "58": 7304,
      "Cal": 7305,
      "WORD": 7306,
      "gar": 7307,
      "rum": 7308,
      "ìĪ": 7309,
      "ìļ": 7310,
      "Ġtb": 7311,
      "Ġtail": 7312,
      "Ġsouthern": 7313,
      "ishes": 7314,
      "Ġfine": 7315,
      "ana": 7316,
      "Ġple": 7317,
      "Ġwife": 7318,
      "ĠTest": 7319,
      "umes": 7320,
      "Ġconstitution": 7321,
      "ĠCast": 7322,
      "ĠMo": 7323,
      "ĠFood": 7324,
      "ĠDat": 7325,
      "ĠDist": 7326,
      "Ġuniverse": 7327,
      "ĠUsing": 7328,
      "ĠJac": 7329,
      "ears": 7330,
      "Ġspecifically": 7331,
      "\"]:": 7332,
      "Ġcenters": 7333,
      "manager": 7334,
      "placeholder": 7335,
      "refresh": 7336,
      "ĠblocklistRegexes": 7337,
      "Ġguess": 7338,
      "Ġpractical": 7339,
      "Ġradius": 7340,
      "Ġplayed": 7341,
      "Ġastero": 7342,
      "Ġexclud": 7343,
      "Ġderiv": 7344,
      "Ġbecoming": 7345,
      "Ġsurrounding": 7346,
      "Ġchallenges": 7347,
      "Ġhundreds": 7348,
      "Ġdynamic": 7349,
      "ĠAlexander": 7350,
      "ĠKorea": 7351,
      "Ġillegal": 7352,
      "ĠIOError": 7353,
      "View": 7354,
      "bound": 7355,
      "hat": 7356,
      "ipe": 7357,
      "squ": 7358,
      "Ġtel": 7359,
      "Ġtape": 7360,
      "isis": 7361,
      "Ġpad": 7362,
      "Ġdra": 7363,
      "Ġmouth": 7364,
      "oul": 7365,
      "Ġtoler": 7366,
      "Ġrecursive": 7367,
      "rogen": 7368,
      "Ġgap": 7369,
      "ĠTor": 7370,
      "ĠTem": 7371,
      "unique": 7372,
      "Ġstated": 7373,
      "Ġstaff": 7374,
      "ĠSl": 7375,
      "ĠSave": 7376,
      "Ġalign": 7377,
      "Ġhear": 7378,
      "Ġresolution": 7379,
      "Ġadvice": 7380,
      "(\"\\": 7381,
      "ĠVer": 7382,
      "compon": 7383,
      "Ġsched": 7384,
      "ĠStand": 7385,
      "Ġ32": 7386,
      "Ġspot": 7387,
      "Ġphr": 7388,
      "ĠallowlistRegexes": 7389,
      "Ġtermin": 7390,
      "Ġslaves": 7391,
      "Ġvisible": 7392,
      "networkapi": 7393,
      "ĠOnce": 7394,
      "Ġexplan": 7395,
      "Ġillness": 7396,
      "Ġsensitive": 7397,
      "ĠModule": 7398,
      "Ġsurvival": 7399,
      "Ġcollege": 7400,
      "################": 7401,
      "Ġvegetables": 7402,
      "According": 7403,
      "Ġprocedures": 7404,
      "Ġbaby": 7405,
      "ĠMexico": 7406,
      "ĠJesus": 7407,
      "JSON": 7408,
      "Man": 7409,
      "duration": 7410,
      "fail": 7411,
      "final": 7412,
      "wood": 7413,
      "æľ": 7414,
      "Ġspon": 7415,
      "Ġcart": 7416,
      "Ġmel": 7417,
      "Ġmigr": 7418,
      "Ġhur": 7419,
      "deg": 7420,
      "oting": 7421,
      "Ġ(%": 7422,
      "ĠCle": 7423,
      "ĠCancer": 7424,
      "abul": 7425,
      "Ġorg": 7426,
      "loy": 7427,
      "Ġnotice": 7428,
      "Ġelife": 7429,
      "Ġhearing": 7430,
      "Ġarrays": 7431,
      "plan": 7432,
      "berg": 7433,
      "velength": 7434,
      "Ġnewsp": 7435,
      "Ġlisted": 7436,
      "Ġspecify": 7437,
      "ditional": 7438,
      "Ġphone": 7439,
      "Ġprocessed": 7440,
      "Ġallowing": 7441,
      "matches": 7442,
      "Ġ\\\\": 7443,
      "Ġissued": 7444,
      "Ġ1998": 7445,
      "AND": 7446,
      "initial": 7447,
      "Ġincome": 7448,
      "Ġurban": 7449,
      "Ġtells": 7450,
      "Ġflags": 7451,
      "Ġlicense": 7452,
      "ceeded": 7453,
      "Ġsubstant": 7454,
      "06": 7455,
      "48": 7456,
      "Aut": 7457,
      "Png": 7458,
      "ROM": 7459,
      "cm": 7460,
      "zero": 7461,
      "¾Ħ": 7462,
      "atoms": 7463,
      "Ġfolder": 7464,
      "eli": 7465,
      "Ġded": 7466,
      "Ġdriver": 7467,
      "Ġoffered": 7468,
      "Ġmour": 7469,
      "Ġmac": 7470,
      "iced": 7471,
      "Ġrecept": 7472,
      "Ġlatter": 7473,
      "ifest": 7474,
      "ifiers": 7475,
      "security": 7476,
      "raps": 7477,
      "isted": 7478,
      "usal": 7479,
      "ĠCa": 7480,
      "ĠMark": 7481,
      "Ġwhites": 7482,
      "ĠDep": 7483,
      "ĠBud": 7484,
      "()]": 7485,
      "asset": 7486,
      "('#": 7487,
      "ĠGiven": 7488,
      "Ġjury": 7489,
      "Ġpermit": 7490,
      "Ġdefine": 7491,
      "Ġparties": 7492,
      "atterer": 7493,
      "Ġfilters": 7494,
      "Ġknew": 7495,
      "Ġflux": 7496,
      "Ġmedic": 7497,
      "Ġeffectively": 7498,
      "Ġlargely": 7499,
      "ATA": 7500,
      "Ġgrass": 7501,
      "identifier": 7502,
      "Ġguide": 7503,
      "subject": 7504,
      "ĠClass": 7505,
      "ĠClient": 7506,
      "Ġmanager": 7507,
      "Ġsugar": 7508,
      "Ġasthma": 7509,
      "Ġpotentially": 7510,
      "Ġsuggested": 7511,
      "brew": 7512,
      "Ġcollections": 7513,
      "Ġincreasingly": 7514,
      "Ġregarding": 7515,
      "Ġdiscovery": 7516,
      "Ġinstitutions": 7517,
      "Ġhonor": 7518,
      "Ġvoxels": 7519,
      "complete": 7520,
      "ĠMaryland": 7521,
      "bachia": 7522,
      "ĠFalha": 7523,
      ":-": 7524,
      "Lo": 7525,
      "aj": 7526,
      "after": 7527,
      "nic": 7528,
      "rist": 7529,
      "she": 7530,
      "vity": 7531,
      "ëª": 7532,
      "erce": 7533,
      "Ġce": 7534,
      "Ġbed": 7535,
      "ura": 7536,
      "dev": 7537,
      "Ġeating": 7538,
      "ĠSuch": 7539,
      "ĠCON": 7540,
      "Ġvital": 7541,
      "resents": 7542,
      "Ġaren": 7543,
      "endpoint": 7544,
      "ĠEC": 7545,
      "()):": 7546,
      "Ġresp": 7547,
      "Ġcharge": 7548,
      "Ġchunks": 7549,
      "Ġchosen": 7550,
      "ansion": 7551,
      "attach": 7552,
      "Ġpeer": 7553,
      "ologists": 7554,
      "contract": 7555,
      "scale": 7556,
      "Ġteaching": 7557,
      "Ġcompare": 7558,
      "Ġsupplies": 7559,
      "Ġartist": 7560,
      "Ġfollows": 7561,
      "Ġjustice": 7562,
      "Ġpercentage": 7563,
      "Ġauthority": 7564,
      "ĠTherefore": 7565,
      "Ġrespond": 7566,
      "Ġprobability": 7567,
      "Ġvirt": 7568,
      "generator": 7569,
      "Ġwonder": 7570,
      "Ġfriends": 7571,
      "ĠCompany": 7572,
      "ĠaryMdlParams": 7573,
      "Ġsequences": 7574,
      "ĠOffice": 7575,
      "hensive": 7576,
      "\"}}": 7577,
      "08": 7578,
      "DT": 7579,
      "During": 7580,
      "Iter": 7581,
      "KE": 7582,
      "pil": 7583,
      "sr": 7584,
      "sleep": 7585,
      "zer": 7586,
      "æĪ": 7587,
      "ç»": 7588,
      "heast": 7589,
      "itis": 7590,
      "anish": 7591,
      "Ġdn": 7592,
      "Ġdial": 7593,
      "Ġmice": 7594,
      "Ġhus": 7595,
      "Ġhouses": 7596,
      "ota": 7597,
      "oto": 7598,
      "ĠSS": 7599,
      "ĠST": 7600,
      "ĠSal": 7601,
      "ĠSender": 7602,
      "ĠNOT": 7603,
      "Ġalgorith": 7604,
      "ĠPut": 7605,
      "Ġyellow": 7606,
      "ĠLake": 7607,
      "Ġimpossible": 7608,
      "Ġenabled": 7609,
      "ĠJava": 7610,
      "Ġsett": 7611,
      "Ġtrust": 7612,
      "Ġattached": 7613,
      "ĠItem": 7614,
      "added": 7615,
      "Ġclassroom": 7616,
      "Ġbreath": 7617,
      "Ġsky": 7618,
      "Ġboot": 7619,
      "Ġnormally": 7620,
      "ĠpostData": 7621,
      "Ġlayout": 7622,
      "Ġadvanced": 7623,
      "Ġamounts": 7624,
      "ĠImage": 7625,
      "Ġlaun": 7626,
      "factor": 7627,
      "Ġtaxes": 7628,
      "ĠRussian": 7629,
      "WSGI": 7630,
      "Service": 7631,
      "ĠTechnology": 7632,
      "Ġincorpor": 7633,
      ")*": 7634,
      "Ang": 7635,
      "BU": 7636,
      "Count": 7637,
      "Is": 7638,
      "Mult": 7639,
      "NE": 7640,
      "beta": 7641,
      "bloco": 7642,
      "cers": 7643,
      "cook": 7644,
      "css": 7645,
      "ipt": 7646,
      "kw": 7647,
      "walk": 7648,
      "yr": 7649,
      "Ġtiny": 7650,
      "rede": 7651,
      "eric": 7652,
      "Ġwave": 7653,
      "Ġinstructions": 7654,
      "Ġbinary": 7655,
      "Ġdram": 7656,
      "asure": 7657,
      "Ġgit": 7658,
      "Ġgold": 7659,
      "Ġsto": 7660,
      "ĠCamb": 7661,
      "ĠCzech": 7662,
      "ĠMer": 7663,
      "ĠMars": 7664,
      "oples": 7665,
      "tern": 7666,
      "ĠRoy": 7667,
      "ĠRights": 7668,
      "exus": 7669,
      "ĠEvery": 7670,
      "ipy": 7671,
      "Ġsep": 7672,
      "ĠWrite": 7673,
      "interests": 7674,
      "Ġshift": 7675,
      "')[": 7676,
      "inds": 7677,
      "Ġkma": 7678,
      "ignore": 7679,
      "aken": 7680,
      "Ġdefects": 7681,
      "Ġmodified": 7682,
      "cred": 7683,
      "ĠĠĠĠĠĠĠĠĠĠĠĠĠĠĠĠĠĠĠĠĠĠĠĠĠĠĠĠĠĠĠĠĠĠĠĠĠĠĠĠĠĠĠĠ": 7684,
      "Inf": 7685,
      "Ġfunctional": 7686,
      "ĠHebrew": 7687,
      "Ġlinear": 7688,
      "plitude": 7689,
      "Ġcenturies": 7690,
      "Ġdelta": 7691,
      "Ġowners": 7692,
      "Ġmainly": 7693,
      "Ġtechnique": 7694,
      "ĠAdminist": 7695,
      "Ġbuildings": 7696,
      "Ġcrisis": 7697,
      "compile": 7698,
      "ĠOrderedDict": 7699,
      "Ġmuscle": 7700,
      "ĠexcMsg": 7701,
      "Ġdeclare": 7702,
      "ĠPrint": 7703,
      "Ġrotation": 7704,
      "ĠâĶ": 7705,
      "ĠConsuls": 7706,
      "Ġmonitoring": 7707,
      "ĠWolbachia": 7708,
      "rairie": 7709,
      "Dr": 7710,
      "NO": 7711,
      "PC": 7712,
      "mology": 7713,
      "such": 7714,
      "æł": 7715,
      "Ġ?": 7716,
      "Ġ))": 7717,
      "Ġtro": 7718,
      "Ġsac": 7719,
      "elta": 7720,
      "Ġinvent": 7721,
      "Ġinhib": 7722,
      "Ġnit": 7723,
      "ctic": 7724,
      "secut": 7725,
      "idates": 7726,
      "ĠTHE": 7727,
      "atever": 7728,
      "Ġyaml": 7729,
      "ĠRober": 7730,
      "Ġring": 7731,
      "ĠHG": 7732,
      "ĠBoth": 7733,
      "convert": 7734,
      "ĠLear": 7735,
      "ĠLondon": 7736,
      "Ġleaving": 7737,
      "Ġhash": 7738,
      "phase": 7739,
      "soft": 7740,
      "setup": 7741,
      "lists": 7742,
      "Ġcreates": 7743,
      "Ġteach": 7744,
      "Ġsupposed": 7745,
      "Ġedit": 7746,
      "Ġcontinuous": 7747,
      "ERR": 7748,
      "defaults": 7749,
      "Ġtopic": 7750,
      "Ġappeared": 7751,
      "Ġindicate": 7752,
      "idxPrc": 7753,
      "ĠImport": 7754,
      "Ġdepends": 7755,
      "factory": 7756,
      "ascii": 7757,
      "Ġparticipants": 7758,
      "Ġconcentration": 7759,
      "Ġreligion": 7760,
      "Ġhorse": 7761,
      "details": 7762,
      "Ġsecure": 7763,
      "Ġmillions": 7764,
      "fastq": 7765,
      "Ġtokens": 7766,
      "ĠLatin": 7767,
      "ĠDivision": 7768,
      "Ġliquid": 7769,
      "07": 7770,
      "Here": 7771,
      "Other": 7772,
      "Pix": 7773,
      "ball": 7774,
      "dif": 7775,
      "fmt": 7776,
      "select": 7777,
      "ture": 7778,
      "ya": 7779,
      "reverse": 7780,
      "Ġsick": 7781,
      "isode": 7782,
      "Ġcovered": 7783,
      "Ġped": 7784,
      "Ġpag": 7785,
      "Ġball": 7786,
      "Ġbright": 7787,
      "Ġmist": 7788,
      "Ġmale": 7789,
      "Ġreaction": 7790,
      "omb": 7791,
      "olf": 7792,
      "Ġ'',": 7793,
      "Ġ130": 7794,
      "loop": 7795,
      "ĠPower": 7796,
      "ckets": 7797,
      "ĠRab": 7798,
      "Ġcomments": 7799,
      "ĠBas": 7800,
      "Ġchief": 7801,
      "aph": 7802,
      "Ġunion": 7803,
      "arest": 7804,
      "Ġperception": 7805,
      "sha": 7806,
      "Ġcooper": 7807,
      "Ġteeth": 7808,
      "Ġexpressed": 7809,
      "Ġhandling": 7810,
      "Ġparticles": 7811,
      "[:]": 7812,
      "Ġadvoc": 7813,
      "Ġpurposes": 7814,
      "íĺķ": 7815,
      "Parse": 7816,
      "Ġfishing": 7817,
      "ĠQuery": 7818,
      "Ġdecrease": 7819,
      "Ġvehicle": 7820,
      "ĠAustralia": 7821,
      "Cannot": 7822,
      "Ġadopted": 7823,
      "Ġdimensions": 7824,
      "ë³´": 7825,
      "56": 7826,
      ":\\": 7827,
      "FIG": 7828,
      "Tst": 7829,
      "avery": 7830,
      "bad": 7831,
      "gu": 7832,
      "mid": 7833,
      "sin": 7834,
      "uint": 7835,
      "wind": 7836,
      "Ġtissue": 7837,
      "heimer": 7838,
      "onds": 7839,
      "arange": 7840,
      "Ġinnov": 7841,
      "Ġbran": 7842,
      "under": 7843,
      "umul": 7844,
      "ĠIOC": 7845,
      "Ġrough": 7846,
      "ĠFA": 7847,
      "ĠFed": 7848,
      "ivars": 7849,
      "Ġelev": 7850,
      "ĠLoc": 7851,
      "oston": 7852,
      "ĠOption": 7853,
      "Ġcloud": 7854,
      "Ġclinical": 7855,
      "Ġneuro": 7856,
      "Ġacids": 7857,
      "ĠVLAN": 7858,
      "Ġscope": 7859,
      "ugs": 7860,
      "Ġpartial": 7861,
      "Ġformats": 7862,
      "scribe": 7863,
      "Ġunderst": 7864,
      "Ġ{},": 7865,
      "ĠExamples": 7866,
      "Ġmedium": 7867,
      "Ġtexts": 7868,
      "Ġseek": 7869,
      "Ġorganic": 7870,
      "Ġoperate": 7871,
      "ĠScient": 7872,
      "Ġmarked": 7873,
      "delay": 7874,
      "Ġredund": 7875,
      "Ġsaying": 7876,
      "ĠValenc": 7877,
      "Ġimplemented": 7878,
      "Ġanswers": 7879,
      "sequences": 7880,
      "Ġattacks": 7881,
      "instances": 7882,
      "ĠIslamic": 7883,
      "Ġchallenge": 7884,
      "Ġstrategies": 7885,
      "separator": 7886,
      "Ġpregnancy": 7887,
      "Ġdoubt": 7888,
      "Ġconcerns": 7889,
      ")/": 7890,
      "Sur": 7891,
      "car": 7892,
      "ftype": 7893,
      "law": 7894,
      "overy": 7895,
      "pdf": 7896,
      "sers": 7897,
      "yy": 7898,
      "ç¬": 7899,
      "ê²": 7900,
      "ë°": 7901,
      "inf": 7902,
      "release": 7903,
      "Ġcrop": 7904,
      "Ġctypes": 7905,
      "edelta": 7906,
      "Ġdaughter": 7907,
      "omal": 7908,
      "ĠIll": 7909,
      "ĠSa": 7910,
      "ĠSol": 7911,
      "ĠSche": 7912,
      "cks": 7913,
      "ĠFe": 7914,
      "Ġatoms": 7915,
      "Ġ29": 7916,
      "Ġchronic": 7917,
      "Ġ[{": 7918,
      "ĠViet": 7919,
      "crete": 7920,
      "Ġqueries": 7921,
      "Ġoverride": 7922,
      "Ġagent": 7923,
      "Ġextended": 7924,
      "Ġwhereas": 7925,
      "Start": 7926,
      "ĠSecond": 7927,
      "Ġrepresents": 7928,
      "background": 7929,
      "notes": 7930,
      "Ġpossibility": 7931,
      "Ġmovements": 7932,
      "Ġredirect": 7933,
      "Ġmanaged": 7934,
      "ĠSyncopation": 7935,
      "Ġcollected": 7936,
      "Ġderived": 7937,
      "tasks": 7938,
      "Ġrepeated": 7939,
      "ĠlgcPrint": 7940,
      "åĲį": 7941,
      "ĠJonah": 7942,
      "ĠInstead": 7943,
      "*]": 7944,
      "500": 7945,
      "TY": 7946,
      "UE": 7947,
      "`:": 7948,
      "draw": 7949,
      "gl": 7950,
      "game": 7951,
      "Ġacl": 7952,
      "Ġsnow": 7953,
      "ano": 7954,
      "Ġinfl": 7955,
      "Ġmigration": 7956,
      "Ġlun": 7957,
      "Ġgun": 7958,
      "chunks": 7959,
      "Ġ'&": 7960,
      "Ġ'')": 7961,
      "ĠCP": 7962,
      "ĠCath": 7963,
      "Ġvast": 7964,
      "Ġ1000": 7965,
      "rier": 7966,
      "ĠMart": 7967,
      "ĠPoint": 7968,
      "ĠRE": 7969,
      "ĠFollowing": 7970,
      "ivot": 7971,
      "oret": 7972,
      "ĠHim": 7973,
      "Ġintensity": 7974,
      "Then": 7975,
      "extra": 7976,
      "duction": 7977,
      "Ġdoctors": 7978,
      "iah": 7979,
      "Ġpara": 7980,
      "Ġdiss": 7981,
      "Ġdefe": 7982,
      "ĠĠĠĠĠĠĠĠĠĠĠĠĠĠĠĠĠĠĠĠĠĠĠĠĠĠĠĠĠĠĠĠĠĠĠĠĠĠĠĠ": 7983,
      "Ġspatial": 7984,
      "Ġformal": 7985,
      "scope": 7986,
      "Ġremark": 7987,
      "Ġbucket": 7988,
      "Ġflat": 7989,
      "configure": 7990,
      "ĠCommit": 7991,
      "ĠAnother": 7992,
      "Ġinfections": 7993,
      "Ġgrupo": 7994,
      "bucket": 7995,
      "annels": 7996,
      "Ġrisks": 7997,
      "Ġcompute": 7998,
      "Ġprompt": 7999,
      "Ġwebdriver": 8000,
      "Ġ\"\":": 8001,
      "Ġtranslation": 8002,
      "Ġë°": 8003,
      "Ġinjury": 8004,
      "Ġassessment": 8005,
      "holders": 8006,
      "Ġpipeline": 8007,
      "Ġtoxicity": 8008,
      "Ġfemale": 8009,
      "Ġvolunte": 8010,
      "Ġsurgery": 8011,
      "ĠJacob": 8012,
      "(['": 8013,
      "/',": 8014,
      "1000": 8015,
      "47": 8016,
      "Americ": 8017,
      "Field": 8018,
      "Xval": 8019,
      "ba": 8020,
      "bg": 8021,
      "burg": 8022,
      "eo": 8023,
      "hook": 8024,
      "href": 8025,
      "pk": 8026,
      "Ġ),": 8027,
      "Ġcoc": 8028,
      "Ġoct": 8029,
      "alian": 8030,
      "Ġpure": 8031,
      "Ġbrown": 8032,
      "inger": 8033,
      "Ġdot": 8034,
      "Ġmur": 8035,
      "Ġmouse": 8036,
      "etc": 8037,
      "ston": 8038,
      "asp": 8039,
      "ilit": 8040,
      "ceive": 8041,
      "imals": 8042,
      "racy": 8043,
      "Ġfort": 8044,
      "ĠTwo": 8045,
      "ĠToday": 8046,
      "ĠTanz": 8047,
      "Ġstderr": 8048,
      "ulum": 8049,
      "isting": 8050,
      "isters": 8051,
      "ĠAut": 8052,
      "ĠSE": 8053,
      "ĠSupp": 8054,
      "Ġproport": 8055,
      "Ġprofile": 8056,
      "ĠPort": 8057,
      "Ġ\",": 8058,
      "definition": 8059,
      "ĠBoston": 8060,
      "Ġcontrolled": 8061,
      "Ġmail": 8062,
      "ĠVictor": 8063,
      "phin": 8064,
      "Ġprepar": 8065,
      "crement": 8066,
      "iveness": 8067,
      "Ġpassing": 8068,
      "Ġdecade": 8069,
      "Ġbreeding": 8070,
      "Ġtreatments": 8071,
      "Ġgrown": 8072,
      "relative": 8073,
      "Ġlandscape": 8074,
      "before": 8075,
      "ĠColumb": 8076,
      "hosts": 8077,
      "called": 8078,
      "DEFAULT": 8079,
      "Ġsender": 8080,
      "Ġphotos": 8081,
      "Ġrecognized": 8082,
      "Ġsatell": 8083,
      "ltry": 8084,
      "Ġdogs": 8085,
      "Ġambiente": 8086,
      "ĠLabor": 8087,
      "effs": 8088,
      "Handler": 8089,
      "Ġefficiency": 8090,
      "\"}": 8091,
      "'m": 8092,
      "PAT": 8093,
      "distance": 8094,
      "equip": 8095,
      "gers": 8096,
      "ka": 8097,
      "png": 8098,
      "rative": 8099,
      "xes": 8100,
      "Â·": 8101,
      "Ġ********************************": 8102,
      "eless": 8103,
      "Ġinactiv": 8104,
      "Ġbrief": 8105,
      "Ġmoon": 8106,
      "Ġnine": 8107,
      "ifts": 8108,
      "develop": 8109,
      "Ġ'<": 8110,
      "ĠSlovak": 8111,
      "Ġorient": 8112,
      "rio": 8113,
      "quate": 8114,
      "ĠNor": 8115,
      "âĢĳ": 8116,
      "this": 8117,
      "ĠFree": 8118,
      "ĠHy": 8119,
      "ĠHouse": 8120,
      "ĠBul": 8121,
      "ĠBrown": 8122,
      "Ġsho": 8123,
      "ĠOil": 8124,
      "Ġkit": 8125,
      "Ġplain": 8126,
      "Ġneither": 8127,
      "Ġouter": 8128,
      "comment": 8129,
      "Ġscene": 8130,
      "Ġparagraph": 8131,
      "ĠĠĠĠĠĠĠĠĠĠĠĠĠĠĠĠĠĠĠĠĠĠĠĠĠĠĠĠĠĠĠĠĠĠ": 8132,
      "ĠĠĠĠĠĠĠĠĠĠĠĠĠĠĠĠĠĠĠĠĠĠĠĠĠĠĠĠĠĠĠĠĠĠĠĠĠĠĠĠĠĠĠĠĠĠĠ": 8133,
      "ĠĠĠĠĠĠĠĠĠĠĠĠĠĠĠĠĠĠĠĠĠĠĠĠĠĠĠĠĠĠĠĠĠĠĠĠĠĠĠĠĠĠĠĠĠĠ": 8134,
      "Ġquarter": 8135,
      "Ġemiss": 8136,
      "Ġacts": 8137,
      "Ġdocs": 8138,
      "Ġoccurrence": 8139,
      "builder": 8140,
      "Ġgreatly": 8141,
      "Ġperiods": 8142,
      "Ġregional": 8143,
      "Ġseparated": 8144,
      "Ġsubjects": 8145,
      "Ġdeclared": 8146,
      "Client": 8147,
      "Ġresponsibility": 8148,
      "LOG": 8149,
      "Ġconsistent": 8150,
      "Ġdemonstrated": 8151,
      "Ġprocedure": 8152,
      "Ġsustainable": 8153,
      "HTTP": 8154,
      "ĠRaises": 8155,
      "Ġstruggle": 8156,
      "ĠFilter": 8157,
      "double": 8158,
      "yclopedia": 8159,
      "ĠAcademy": 8160,
      "Ġ****************************************************************": 8161,
      "Met": 8162,
      "Msk": 8163,
      "Our": 8164,
      "Search": 8165,
      "gon": 8166,
      "hol": 8167,
      "how": 8168,
      "none": 8169,
      "sid": 8170,
      "Ġ75": 8171,
      "Ġastr": 8172,
      "Ġsports": 8173,
      "Ġtherm": 8174,
      "arp": 8175,
      "Ġwet": 8176,
      "Ġmeters": 8177,
      "Ġthick": 8178,
      "Ġbeat": 8179,
      "Ġvul": 8180,
      "Ġalt": 8181,
      "threshold": 8182,
      "ĠEPA": 8183,
      "()[": 8184,
      "ĠuWSGI": 8185,
      "Ġleaf": 8186,
      "indel": 8187,
      "Ġwealth": 8188,
      "ibl": 8189,
      "ibilities": 8190,
      "ailability": 8191,
      "reating": 8192,
      "Ġcurr": 8193,
      "Ġconsult": 8194,
      "ssl": 8195,
      "Ġassistance": 8196,
      "Ġcontained": 8197,
      "tenance": 8198,
      "Ġentries": 8199,
      "Ġgrade": 8200,
      "ancing": 8201,
      "Ġnetworkapi": 8202,
      "Ġcapable": 8203,
      "structure": 8204,
      "Ġradio": 8205,
      "raged": 8206,
      "Ġ1980": 8207,
      "ĠControl": 8208,
      "ĠvecBst": 8209,
      "Ġfigures": 8210,
      "Comm": 8211,
      "2012": 8212,
      "Ġengineering": 8213,
      "ìĿ¼": 8214,
      "Ġconcentrations": 8215,
      "Ġestimates": 8216,
      "Ġanalyze": 8217,
      "Ġslowly": 8218,
      "basic": 8219,
      "basename": 8220,
      "Ġfarmers": 8221,
      "Ġstraight": 8222,
      "Ġmentioned": 8223,
      "molecule": 8224,
      "igenous": 8225,
      "ĠRobert": 8226,
      ")])": 8227,
      "96": 8228,
      "CI": 8229,
      "CLA": 8230,
      "Do": 8231,
      "DAC": 8232,
      "Ed": 8233,
      "Trn": 8234,
      "but": 8235,
      "disc": 8236,
      "efficient": 8237,
      "fif": 8238,
      "front": 8239,
      "hi": 8240,
      "jo": 8241,
      "may": 8242,
      "mond": 8243,
      "pm": 8244,
      "sd": 8245,
      "zil": 8246,
      "zheimer": 8247,
      "Ġtub": 8248,
      "Ġsides": 8249,
      "isdir": 8250,
      "alar": 8251,
      "itage": 8252,
      "arant": 8253,
      "Ġfle": 8254,
      "Ġdates": 8255,
      "second": 8256,
      "ceiver": 8257,
      "Ġgay": 8258,
      "Ġgone": 8259,
      "igation": 8260,
      "ĠAriz": 8261,
      "Ġ':": 8262,
      "loss": 8263,
      "Ġwhit": 8264,
      "ĠFurther": 8265,
      "assert": 8266,
      "ĠLand": 8267,
      "ĠOld": 8268,
      "Ġdefic": 8269,
      "ensitive": 8270,
      "ĠĠĠĠĠĠĠĠĠĠĠĠĠĠĠĠĠĠĠĠĠĠĠĠĠĠĠĠĠĠĠĠĠĠĠĠĠĠĠĠĠĠĠĠĠ": 8271,
      "Ġ35": 8272,
      "Ġinteractions": 8273,
      "ĠConstitution": 8274,
      "Ġproducing": 8275,
      "Ġextreme": 8276,
      "Ġsupplement": 8277,
      "Ġfacts": 8278,
      "running": 8279,
      "Ġpossibly": 8280,
      "Ġsupports": 8281,
      "ĠResources": 8282,
      "ĠNews": 8283,
      "Ġslice": 8284,
      "Ġwanted": 8285,
      "Ġportion": 8286,
      "Ġexplained": 8287,
      "Ġpacket": 8288,
      "Ġgraphic": 8289,
      "Ġangles": 8290,
      "Ġvertices": 8291,
      "ĠPerform": 8292,
      "Ġholding": 8293,
      "Ġliterature": 8294,
      "Ġexplore": 8295,
      "Ġvoxel": 8296,
      "Ġtowns": 8297,
      "Ġdangerous": 8298,
      "ĠIndicatorItem": 8299,
      "Ġsomewhat": 8300,
      "62": 8301,
      "95": 8302,
      "BN": 8303,
      "Download": 8304,
      "FO": 8305,
      "SU": 8306,
      "[*]": 8307,
      "aired": 8308,
      "bian": 8309,
      "east": 8310,
      "github": 8311,
      "surname": 8312,
      "uit": 8313,
      "¨ĭ": 8314,
      "å¤": 8315,
      "ç¨ĭ": 8316,
      "onical": 8317,
      "Ġcatch": 8318,
      "Ġox": 8319,
      "arrow": 8320,
      "Ġfly": 8321,
      "Ġpush": 8322,
      "ĠnÃ£o": 8323,
      "ravel": 8324,
      "Ġ'__": 8325,
      "ĠSend": 8326,
      "Ġasync": 8327,
      "Ġorbit": 8328,
      "rior": 8329,
      "ĠMA": 8330,
      "ĠMr": 8331,
      "romos": 8332,
      "iva": 8333,
      "Ġsuitable": 8334,
      "ĠHospital": 8335,
      "Ġchapter": 8336,
      "Ġchurch": 8337,
      "assis": 8338,
      "ĠOcean": 8339,
      "ansas": 8340,
      "Ġlogic": 8341,
      "Ġappoint": 8342,
      "ĠStop": 8343,
      "Ġregulations": 8344,
      "egr": 8345,
      "Ġpeoples": 8346,
      "foo": 8347,
      "___": 8348,
      "ĠYet": 8349,
      "Ġextensive": 8350,
      "common": 8351,
      "ĠArmy": 8352,
      "Ġdeleg": 8353,
      "Stud": 8354,
      "Ġtempor": 8355,
      "Ġfails": 8356,
      "vertices": 8357,
      "Ġexistence": 8358,
      "Ġdetected": 8359,
      "Ġgoods": 8360,
      "Ġtypical": 8361,
      "Ġsecondary": 8362,
      "Ġkeeping": 8363,
      "Ġinvolves": 8364,
      "Ġexplains": 8365,
      "iki": 8366,
      "atershed": 8367,
      "Ġreplacement": 8368,
      "trace": 8369,
      "generated": 8370,
      "ĠSpanish": 8371,
      "Ġdepression": 8372,
      "Ġmechanism": 8373,
      "Ġdestroyed": 8374,
      "aturally": 8375,
      "ĠCreates": 8376,
      "ĠIndexError": 8377,
      "Ġformatted": 8378,
      "elihood": 8379,
      "Ġmedicines": 8380,
      "ERROR": 8381,
      "FOR": 8382,
      "Red": 8383,
      "Sm": 8384,
      "liter": 8385,
      "qbar": 8386,
      "screen": 8387,
      "includ": 8388,
      "Ġsan": 8389,
      "oral": 8390,
      "ita": 8391,
      "Ġbill": 8392,
      "Ġbud": 8393,
      "Ġmol": 8394,
      "amil": 8395,
      "ashes": 8396,
      "Ġlose": 8397,
      "Ġhazard": 8398,
      "Ġgar": 8399,
      "ĠTr": 8400,
      "adel": 8401,
      "ĠAuthor": 8402,
      "ĠSection": 8403,
      "agers": 8404,
      "esso": 8405,
      "ĠPub": 8406,
      "Ġ\"/": 8407,
      "ĠRad": 8408,
      "Ġcomposed": 8409,
      "Ġrural": 8410,
      "ivar": 8411,
      "acesso": 8412,
      "ĠLet": 8413,
      "Ġintellig": 8414,
      "ĠJose": 8415,
      "Ġpreferred": 8416,
      "Ġsetattr": 8417,
      "Ġsynd": 8418,
      "Ġregul": 8419,
      "Ġagency": 8420,
      "encoded": 8421,
      "errors": 8422,
      "ĠConvert": 8423,
      "filters": 8424,
      "\"].": 8425,
      "neighb": 8426,
      "Ġexpansion": 8427,
      "ieties": 8428,
      "Ġsignature": 8429,
      "inalg": 8430,
      "IDS": 8431,
      "Ġshel": 8432,
      "ĠWhite": 8433,
      "Ġtechnical": 8434,
      "findall": 8435,
      "Ġfewer": 8436,
      "Ġindicating": 8437,
      "Ġantib": 8438,
      "species": 8439,
      "ä¸º": 8440,
      "Another": 8441,
      "Ġemployed": 8442,
      "Ġphoto": 8443,
      "Ġhomes": 8444,
      "Ġhomosexual": 8445,
      "Ġjoined": 8446,
      "Ġcorrectly": 8447,
      "latest": 8448,
      "Ġlicens": 8449,
      "ĠGuide": 8450,
      "SubElement": 8451,
      "Ġlaboratory": 8452,
      "Ġconstructed": 8453,
      "Ġnutri": 8454,
      "Ġenhance": 8455,
      "ĠInputs": 8456,
      "ioxide": 8457,
      "Ġaccompl": 8458,
      "Ġscattering": 8459,
      "Ġweapons": 8460,
      "dimensional": 8461,
      "Ġpoultry": 8462,
      "Ġexcellent": 8463,
      "ĠRoyal": 8464,
      ".|": 8465,
      "IA": 8466,
      "MB": 8467,
      "Map": 8468,
      "Table": 8469,
      "Types": 8470,
      "Using": 8471,
      "_{": 8472,
      "echo": 8473,
      "fortunately": 8474,
      "lang": 8475,
      "ranges": 8476,
      "sibling": 8477,
      "uwsgi": 8478,
      "wan": 8479,
      "Ġtrou": 8480,
      "invalid": 8481,
      "Ġcop": 8482,
      "itivity": 8483,
      "Ġft": 8484,
      "Ġfol": 8485,
      "Ġfelt": 8486,
      "analy": 8487,
      "ether": 8488,
      "Ġnod": 8489,
      "seconds": 8490,
      "otics": 8491,
      "Ġvess": 8492,
      "ĠMi": 8493,
      "ĠMax": 8494,
      "ĠMicro": 8495,
      "Ġalle": 8496,
      "Ġreturning": 8497,
      "mentation": 8498,
      "Ġrid": 8499,
      "Ġranges": 8500,
      "ipher": 8501,
      "))))": 8502,
      "âĢĻ:": 8503,
      "comb": 8504,
      "Ġdescriptor": 8505,
      "Ġregistry": 8506,
      "\")[": 8507,
      "Ġagree": 8508,
      "ĠReport": 8509,
      "Ġminute": 8510,
      "region": 8511,
      "ĠAlzheimer": 8512,
      "Ġlooked": 8513,
      "runs": 8514,
      "Ġprotected": 8515,
      "Ġinfra": 8516,
      "ĠSciences": 8517,
      "required": 8518,
      "hostname": 8519,
      "suff": 8520,
      "ĠDataFrame": 8521,
      "Ġfocused": 8522,
      "Ġaccel": 8523,
      "Ġirrig": 8524,
      "Ġindependence": 8525,
      "ĠStudents": 8526,
      "Ġsigma": 8527,
      "Ġmanufacture": 8528,
      "Ġvaccine": 8529,
      "Ġagricultural": 8530,
      "Ġuncertain": 8531,
      "scription": 8532,
      "ìĭľ": 8533,
      "Connection": 8534,
      "isiÃ§Ã£o": 8535,
      "ĠFrancisco": 8536,
      "DELETE": 8537,
      "abulary": 8538,
      "Ġlaunched": 8539,
      ")'": 8540,
      "87": 8541,
      "Note": 8542,
      "YN": 8543,
      "care": 8544,
      "fname": 8545,
      "prom": 8546,
      "ville": 8547,
      "za": 8548,
      "inner": 8549,
      "ittle": 8550,
      "Ġwors": 8551,
      "etry": 8552,
      "static": 8553,
      "Ġnaturally": 8554,
      "Ġstages": 8555,
      "ĠAccess": 8556,
      "ĠMag": 8557,
      "Ġcomposition": 8558,
      "ĠEquipamento": 8559,
      "ĠDise": 8560,
      "appe": 8561,
      "ĠGlobal": 8562,
      "ĠGulf": 8563,
      "ĠLiter": 8564,
      "puted": 8565,
      "Ġdefines": 8566,
      "Ġmanip": 8567,
      "ĠĠĠĠĠĠĠĠĠĠĠĠĠĠĠĠĠĠĠĠĠĠĠĠĠĠĠĠĠĠĠĠĠĠĠĠĠ": 8568,
      "Ġtwice": 8569,
      "Ġcrew": 8570,
      "Ġproduces": 8571,
      "Ġfeud": 8572,
      "flat": 8573,
      "ĠrequisiÃ§Ã£o": 8574,
      "ĠExec": 8575,
      "syll": 8576,
      "Ġdescricao": 8577,
      "Ġroots": 8578,
      "Ġdescribes": 8579,
      "weights": 8580,
      "Ġbulbs": 8581,
      "Ġvillages": 8582,
      "Ġmixed": 8583,
      "timestamp": 8584,
      "Ġpictures": 8585,
      "property": 8586,
      "Ġcompetition": 8587,
      "Remove": 8588,
      "Ġinherit": 8589,
      "ĠCurrent": 8590,
      "Ġbeautiful": 8591,
      "Ġagreement": 8592,
      "ĠRetrieved": 8593,
      "ĠDetermine": 8594,
      "ĠCommittee": 8595,
      "\">": 8596,
      "IME": 8597,
      "MM": 8598,
      "Sets": 8599,
      "ael": 8600,
      "border": 8601,
      "frames": 8602,
      "nav": 8603,
      "px": 8604,
      "sil": 8605,
      "tx": 8606,
      "vents": 8607,
      "zo": 8608,
      "reload": 8609,
      "repr": 8610,
      "Ġsessions": 8611,
      "oric": 8612,
      "orical": 8613,
      "Ġoxy": 8614,
      "anks": 8615,
      "Ġinstruct": 8616,
      "Ġbg": 8617,
      "Ġmatters": 8618,
      "icy": 8619,
      "stances": 8620,
      "amma": 8621,
      "Ġthreads": 8622,
      "Ġecosystem": 8623,
      "idential": 8624,
      "ching": 8625,
      "istent": 8626,
      "ĠIter": 8627,
      "emeter": 8628,
      "agen": 8629,
      "ĠNature": 8630,
      "ĠMat": 8631,
      "ĠPur": 8632,
      "ĠPlease": 8633,
      "Ġraml": 8634,
      "Ġrouter": 8635,
      "ĠDE": 8636,
      "clusters": 8637,
      "(',": 8638,
      "ĠLibrary": 8639,
      "Ġkil": 8640,
      "ells": 8641,
      "sole": 8642,
      "Ġapparent": 8643,
      "profile": 8644,
      "Ġyourself": 8645,
      "Ġrefers": 8646,
      "Ġdirected": 8647,
      "oviet": 8648,
      "ĠAnn": 8649,
      "opyright": 8650,
      "trig": 8651,
      "ĠPhys": 8652,
      "Ġ1997": 8653,
      "Ġfinished": 8654,
      "auto": 8655,
      "Ġintegration": 8656,
      "Ġhappened": 8657,
      "links": 8658,
      "Ġoptim": 8659,
      "Ġentirely": 8660,
      "Ġstrike": 8661,
      "Ġfamiliar": 8662,
      "Ġdivision": 8663,
      "ĠManagement": 8664,
      "Ġboundary": 8665,
      "Ġpriority": 8666,
      "sentence": 8667,
      "Ġwarming": 8668,
      "Ġmobile": 8669,
      "Ġphilosophy": 8670,
      "Ġfloor": 8671,
      "Ġfundamental": 8672,
      "Ġgirls": 8673,
      "Ġfertil": 8674,
      "è¯¾ç¨ĭ": 8675,
      "ĠWildlife": 8676,
      "Ġemissivity": 8677,
      "ĠArizona": 8678,
      "97": 8679,
      "?\"": 8680,
      "MD": 8681,
      "OS": 8682,
      "Text": 8683,
      "ef": 8684,
      "eer": 8685,
      "gov": 8686,
      "linalg": 8687,
      "oe": 8688,
      "¯å": 8689,
      "hex": 8690,
      "orate": 8691,
      "align": 8692,
      "arc": 8693,
      "Ġfp": 8694,
      "Ġbins": 8695,
      "Ġbones": 8696,
      "icon": 8697,
      "icians": 8698,
      "Ġrecur": 8699,
      "amily": 8700,
      "semble": 8701,
      "otype": 8702,
      "rape": 8703,
      "Ġgender": 8704,
      "ĠTim": 8705,
      "Ġstable": 8706,
      "ows": 8707,
      "ĠNations": 8708,
      "osph": 8709,
      "Ġrub": 8710,
      "ĠField": 8711,
      "ĠEN": 8712,
      "plant": 8713,
      "Ġchars": 8714,
      "Ġkin": 8715,
      "ĠInc": 8716,
      "Ġacres": 8717,
      "Ġfilepath": 8718,
      "ĠChapter": 8719,
      "__.": 8720,
      "Ġphi": 8721,
      "Ġcompat": 8722,
      "Ġdecisions": 8723,
      "Ġexperiments": 8724,
      "requests": 8725,
      "Ġcalibration": 8726,
      "iodiversity": 8727,
      "Ġfitted": 8728,
      "ART": 8729,
      "Ġdecline": 8730,
      "Ġmassive": 8731,
      "Ġrecognize": 8732,
      "Ġinjuries": 8733,
      "Ġachieved": 8734,
      "Ġregularly": 8735,
      "ĠFrank": 8736,
      "ĠPhiladel": 8737,
      "ĠBlack": 8738,
      "Ġatmospheric": 8739,
      "Ġinstitution": 8740,
      "ĠUpdate": 8741,
      "åŃĹ": 8742,
      "Ġinsects": 8743,
      "Ġphenomen": 8744,
      "Ġacademic": 8745,
      "Ġhusband": 8746,
      "Ġbranches": 8747,
      "suffix": 8748,
      "ĠPhiladelph": 8749,
      "'}": 8750,
      "FF": 8751,
      "Please": 8752,
      "Que": 8753,
      "Sw": 8754,
      "Section": 8755,
      "Tr": 8756,
      "begin": 8757,
      "cour": 8758,
      "custom": 8759,
      "lint": 8760,
      "mines": 8761,
      "tw": 8762,
      "©º": 8763,
      "ç©º": 8764,
      "ë¡": 8765,
      "inction": 8766,
      "orter": 8767,
      "ali": 8768,
      "aro": 8769,
      "Ġwants": 8770,
      "iondo": 8771,
      "Ġdim": 8772,
      "Ġdiver": 8773,
      "Ġdump": 8774,
      "Ġdioxide": 8775,
      "Ġmand": 8776,
      "Ġrede": 8777,
      "Ġthir": 8778,
      "Ġgall": 8779,
      "verts": 8780,
      "Ġbears": 8781,
      "ĠAmb": 8782,
      "ĠSearch": 8783,
      "embed": 8784,
      "erson": 8785,
      "ĠMiss": 8786,
      "ĠEconom": 8787,
      "Ġelem": 8788,
      "ĠGl": 8789,
      "Ġwasn": 8790,
      "Ġenforce": 8791,
      "Ġrab": 8792,
      "oking": 8793,
      "ĠInstance": 8794,
      "ĠâĢ¦": 8795,
      "aven": 8796,
      "ĠStep": 8797,
      "Ġintervals": 8798,
      "Ġtwenty": 8799,
      "Ġreadout": 8800,
      "Ġexpensive": 8801,
      "Ġcentre": 8802,
      "Ġlock": 8803,
      "Ġbackup": 8804,
      "notation": 8805,
      "Convert": 8806,
      "Ġauthent": 8807,
      "Ġcomputers": 8808,
      "Ġseparator": 8809,
      "Ġfallback": 8810,
      "Ġanalyses": 8811,
      "ĠIPv": 8812,
      "cosmo": 8813,
      "mpty": 8814,
      "ĠPoland": 8815,
      "Validate": 8816,
      "Ġframework": 8817,
      "MAP": 8818,
      "Ġsurvive": 8819,
      "Ġrepeat": 8820,
      "Ġdebate": 8821,
      "Ġsyllable": 8822,
      "Ġclosely": 8823,
      "Ġrarely": 8824,
      "Ġrapidly": 8825,
      "Ġspiritual": 8826,
      "Ġgalaxy": 8827,
      "ĠThomas": 8828,
      "ê¸Ī": 8829,
      "Ġdollars": 8830,
      "ç¬¦": 8831,
      "ĠCatholic": 8832,
      "'\"": 8833,
      "'d": 8834,
      "(?": 8835,
      "DC": 8836,
      "MENT": 8837,
      "Page": 8838,
      "batch": 8839,
      "cup": 8840,
      "ki": 8841,
      "rb": 8842,
      "train": 8843,
      "·¯å": 8844,
      "è¡": 8845,
      "è·¯å": 8846,
      "ħìĦ": 8847,
      "erals": 8848,
      "ato": 8849,
      "Ġsampl": 8850,
      "Ġcrow": 8851,
      "Ġcamer": 8852,
      "Ġdst": 8853,
      "Ġreject": 8854,
      "ctx": 8855,
      "Ġconven": 8856,
      "Ġpros": 8857,
      "ĠNol": 8858,
      "Ġalive": 8859,
      "Ġwhatever": 8860,
      "Ġrv": 8861,
      "illa": 8862,
      "ults": 8863,
      "plates": 8864,
      "plugin": 8865,
      "ĠWatershed": 8866,
      "Ġchick": 8867,
      "Ġunus": 8868,
      "ĠOsage": 8869,
      "Ġrace": 8870,
      "omega": 8871,
      "Ġadmin": 8872,
      "ressive": 8873,
      "Ġ[[": 8874,
      "uals": 8875,
      "Ġpred": 8876,
      "Ġquiet": 8877,
      "Ġinterpre": 8878,
      "Ġfiltered": 8879,
      "loads": 8880,
      "prim": 8881,
      "tension": 8882,
      "ttp": 8883,
      "Ġzi": 8884,
      "Ġsmart": 8885,
      "venile": 8886,
      "Conf": 8887,
      "Ġrising": 8888,
      "Ġcareer": 8889,
      "Ġcombine": 8890,
      "hesis": 8891,
      "ometimes": 8892,
      "Ġaccounts": 8893,
      "Ġmutations": 8894,
      "ĠMinistry": 8895,
      "Ġfrequent": 8896,
      "Ġflowers": 8897,
      "decorator": 8898,
      "Ġcalculated": 8899,
      "Ġpermissions": 8900,
      "Ġneighbors": 8901,
      "written": 8902,
      "Ġcarrying": 8903,
      "Ġgranted": 8904,
      "Update": 8905,
      "dicCnfg": 8906,
      "Ġsmooth": 8907,
      "PTION": 8908,
      "Ġcomprehensive": 8909,
      "Ġinstrument": 8910,
      "Ġsubsequent": 8911,
      "Ġwhitespace": 8912,
      "è·¯å¾Ħ": 8913,
      "ħìĦ¸ìĦľ": 8914,
      ")',": 8915,
      ".\\": 8916,
      "Cre": 8917,
      "Car": 8918,
      "First": 8919,
      "Mt": 8920,
      "RC": 8921,
      "Session": 8922,
      "SION": 8923,
      "ky": 8924,
      "oauth": 8925,
      "pad": 8926,
      "rAng": 8927,
      "tp": 8928,
      "çĽ": 8929,
      "ì²": 8930,
      "hered": 8931,
      "heries": 8932,
      "isf": 8933,
      "aration": 8934,
      "Ġwalls": 8935,
      "Ġnet": 8936,
      "idents": 8937,
      "oliondo": 8938,
      "ĠTable": 8939,
      "ĠText": 8940,
      "ĠAM": 8941,
      "ĠSud": 8942,
      "ĠSouthern": 8943,
      "ago": 8944,
      "ĠNav": 8945,
      "opic": 8946,
      "ĠEvent": 8947,
      "outine": 8948,
      "ĠWomen": 8949,
      "ĠLong": 8950,
      "Ġunable": 8951,
      "Ġkw": 8952,
      "Ġneur": 8953,
      "Ġaccomp": 8954,
      "prob": 8955,
      "archy": 8956,
      "Ġvars": 8957,
      "ĠConvention": 8958,
      "Ġcontainers": 8959,
      "Ġsigned": 8960,
      "Ġdelim": 8961,
      "Ġsimpl": 8962,
      "Ġmetal": 8963,
      "Ġmetab": 8964,
      "Ġì²": 8965,
      "INE": 8966,
      "Ġplanets": 8967,
      "Ġaddresses": 8968,
      "Ġfacility": 8969,
      "Ġadvance": 8970,
      "Ġconstraints": 8971,
      "ĠPlace": 8972,
      "ĠNotes": 8973,
      "Ġarchive": 8974,
      "Ġafford": 8975,
      "simulated": 8976,
      "abspath": 8977,
      "Ġfruits": 8978,
      "ĠÂ·": 8979,
      "Ġanalyzed": 8980,
      "Ġmountain": 8981,
      "PlrAng": 8982,
      "ĠJapanese": 8983,
      "Ġsoldiers": 8984,
      "Ġemphasis": 8985,
      "Ġgradient": 8986,
      "jacency": 8987,
      "ĠBrazil": 8988,
      "Teacher": 8989,
      "ĠaryFuncChnk": 8990,
      "prepare": 8991,
      "ĠTanzania": 8992,
      "={'": 8993,
      "Co": 8994,
      "gbif": 8995,
      "iro": 8996,
      "lins": 8997,
      "rant": 8998,
      "some": 8999,
      "zi": 9000,
      "çĶ": 9001,
      "Ġ).": 9002,
      "invari": 9003,
      "Ġslo": 9004,
      "Ġsought": 9005,
      "isheries": 9006,
      "Ġfed": 9007,
      "Ġfirm": 9008,
      "Ġfetch": 9009,
      "ani": 9010,
      "Ġwish": 9011,
      "Ġbatter": 9012,
      "Ġmiss": 9013,
      "Ġlands": 9014,
      "ulpt": 9015,
      "Ġbear": 9016,
      "Ġ')": 9017,
      "ĠCS": 9018,
      "about": 9019,
      "resp": 9020,
      "ĠMu": 9021,
      "ĠMust": 9022,
      "ĠPot": 9023,
      "ĠPost": 9024,
      "ĠDoes": 9025,
      "ĠBÃ¶": 9026,
      "ocols": 9027,
      "concat": 9028,
      "('_": 9029,
      "Ġcontamin": 9030,
      "asts": 9031,
      "udes": 9032,
      "ĠView": 9033,
      "ĠĠĠĠĠĠĠĠĠĠĠĠĠĠĠĠĠĠĠĠĠĠĠĠĠĠĠĠĠĠĠĠĠĠĠĠĠĠĠĠĠĠ": 9034,
      "raml": 9035,
      "Ġcoverage": 9036,
      "coln": 9037,
      "Ġunderlying": 9038,
      "riculum": 9039,
      "country": 9040,
      "Ġfactory": 9041,
      "note": 9042,
      "refs": 9043,
      "azi": 9044,
      "azine": 9045,
      "Ġgreatest": 9046,
      "Ġdigits": 9047,
      "ascara": 9048,
      "Ġdownloaded": 9049,
      "ĠlstNii": 9050,
      "Ġimmun": 9051,
      "Ġclaimed": 9052,
      "Ã¡rio": 9053,
      "Ġoriginally": 9054,
      "Ġrotor": 9055,
      "Ġfeedback": 9056,
      "Ġsituations": 9057,
      "ĠStudies": 9058,
      "Ġjudg": 9059,
      "Ġresidents": 9060,
      "ĠParty": 9061,
      "Ġprincipal": 9062,
      "Ġhydrogen": 9063,
      "Ġsandy": 9064,
      "Ġagriculture": 9065,
      "segments": 9066,
      "Ġwarnings": 9067,
      "Ġdirections": 9068,
      "ĠColorado": 9069,
      "Ġexplanation": 9070,
      "Ġunderstood": 9071,
      "ĠPhiladelphia": 9072,
      "/{": 9073,
      "71": 9074,
      "AA": 9075,
      "ASE": 9076,
      "HER": 9077,
      "Network": 9078,
      "National": 9079,
      "SP": 9080,
      "Tree": 9081,
      "Vox": 9082,
      "aught": 9083,
      "bind": 9084,
      "gi": 9085,
      "gre": 9086,
      "iary": 9087,
      "oval": 9088,
      "rary": 9089,
      "tpl": 9090,
      "wb": 9091,
      "yles": 9092,
      "Ġade": 9093,
      "Ġapart": 9094,
      "ora": 9095,
      "Ġcats": 9096,
      "alm": 9097,
      "Ġfilled": 9098,
      "Ġindeed": 9099,
      "Ġanx": 9100,
      "Ġnest": 9101,
      "amps": 9102,
      "Ġhop": 9103,
      "Ġ(*)": 9104,
      "owel": 9105,
      "ĠNorthern": 9106,
      "ĠPac": 9107,
      "ĠParent": 9108,
      "keep": 9109,
      "ĠRock": 9110,
      "Ġrul": 9111,
      "Ġchain": 9112,
      "ĠGal": 9113,
      "argets": 9114,
      "ĠLoliondo": 9115,
      "Ġshot": 9116,
      "Ġuncon": 9117,
      "serialize": 9118,
      "ĠThose": 9119,
      "Ġpreced": 9120,
      "Ġdisp": 9121,
      "Ġdefend": 9122,
      "setdefault": 9123,
      "Ġapprec": 9124,
      "Ġspend": 9125,
      "ificate": 9126,
      "nsel": 9127,
      "Ġtheme": 9128,
      "ĠRevolution": 9129,
      "ĠArts": 9130,
      "Ġflight": 9131,
      "Ġmedications": 9132,
      "Ġconnections": 9133,
      "Ġchecking": 9134,
      "lik": 9135,
      "Ġlesson": 9136,
      "Ġelectron": 9137,
      "Ġstatistics": 9138,
      "database": 9139,
      "Ġfacade": 9140,
      "Ġfacilit": 9141,
      "Ġcertainly": 9142,
      "Ġofficers": 9143,
      "dependent": 9144,
      "Ġcommitted": 9145,
      "Ġcommittee": 9146,
      "ĠGeo": 9147,
      "2013": 9148,
      "disp": 9149,
      "Ġhousehold": 9150,
      "Ġexamine": 9151,
      "recip": 9152,
      "Ġevaluation": 9153,
      "Module": 9154,
      "ĠìķĦìĿ´ëĶĶ": 9155,
      "Ġstrategy": 9156,
      "Ġthousand": 9157,
      "Ġscenario": 9158,
      "FILE": 9159,
      "Ġcandidate": 9160,
      "Ġdelivery": 9161,
      "Ġdrinking": 9162,
      "ĠPMID": 9163,
      "ĠNGO": 9164,
      "Ġsymmet": 9165,
      "ĠAtlantic": 9166,
      "Ġathle": 9167,
      "ĠItemCode": 9168,
      "Ġvulner": 9169,
      ")\"": 9170,
      "*.": 9171,
      "46": 9172,
      "86": 9173,
      "91": 9174,
      "=',": 9175,
      "Could": 9176,
      "Nrl": 9177,
      "Part": 9178,
      "bell": 9179,
      "bered": 9180,
      "dac": 9181,
      "ko": 9182,
      "mapping": 9183,
      "power": 9184,
      "ssh": 9185,
      "vars": 9186,
      "Ķë": 9187,
      "Ġtldap": 9188,
      "Ġaqu": 9189,
      "health": 9190,
      "esis": 9191,
      "Ġclock": 9192,
      "Ġfmt": 9193,
      "Ġpd": 9194,
      "Ġpil": 9195,
      "Ġbor": 9196,
      "Ġdie": 9197,
      "road": 9198,
      "Ġlas": 9199,
      "urance": 9200,
      "urations": 9201,
      "Ġhidden": 9202,
      "Ġhospital": 9203,
      "omo": 9204,
      "changed": 9205,
      "iri": 9206,
      "ods": 9207,
      "estone": 9208,
      "ĠNa": 9209,
      "ĠNorm": 9210,
      "ĠPass": 9211,
      "Ġdepos": 9212,
      "ourney": 9213,
      "Ġheel": 9214,
      "ĠBi": 9215,
      "Ġreserved": 9216,
      "plugins": 9217,
      "ocument": 9218,
      "cloud": 9219,
      "ordinal": 9220,
      "angel": 9221,
      "ĠLike": 9222,
      "Ġunem": 9223,
      "ĠOF": 9224,
      "indu": 9225,
      "ĠJob": 9226,
      "ĠVlan": 9227,
      "Ġparsing": 9228,
      "owner": 9229,
      "Ġlisting": 9230,
      "Ġmanifest": 9231,
      "Ġvalu": 9232,
      "product": 9233,
      "ĠItalian": 9234,
      "virtual": 9235,
      "rank": 9236,
      "Ġsaf": 9237,
      "Ġprinted": 9238,
      "ĠReview": 9239,
      "Ġ//": 9240,
      "Ġurls": 9241,
      "Ġmatcher": 9242,
      "Ġmaintenance": 9243,
      "Ġinfer": 9244,
      "Ġ1994": 9245,
      "Ġ------": 9246,
      "Ġreceiving": 9247,
      "Ġindicated": 9248,
      "Ġopposed": 9249,
      "Ġvolt": 9250,
      "Ġbiology": 9251,
      "Ġcopyright": 9252,
      "Ġdriving": 9253,
      "ognitive": 9254,
      "Ġconsiderable": 9255,
      "Ġimmigr": 9256,
      "ĠAbra": 9257,
      "Ġvisitors": 9258,
      "Ġfeeding": 9259,
      "ĠTrade": 9260,
      "Ġworse": 9261,
      "ĠRequestNum": 9262,
      "Ġleadership": 9263,
      "ĠìłĦìĨ¡": 9264,
      "ExpInf": 9265,
      "ĠDirector": 9266,
      "Ġrecipient": 9267,
      "ĠLincoln": 9268,
      "Hello": 9269,
      "ĠProfessor": 9270,
      "Ġhorizont": 9271,
      "ĠMiller": 9272,
      "ĠDistrict": 9273,
      "Ġoxygen": 9274,
      "åŃĹç¬¦": 9275,
      "!')": 9276,
      ",)": 9277,
      "-%": 9278,
      "Cor": 9279,
      "MAT": 9280,
      "SER": 9281,
      "\\`": 9282,
      "fac": 9283,
      "jd": 9284,
      "mac": 9285,
      "nger": 9286,
      "xl": 9287,
      "inet": 9288,
      "Ġcodon": 9289,
      "Ġpt": 9290,
      "eles": 9291,
      "ingly": 9292,
      "Ġmeth": 9293,
      "station": 9294,
      "Ġreven": 9295,
      "Ġnur": 9296,
      "Ġnarrow": 9297,
      "Ġhorm": 9298,
      "iminal": 9299,
      "Ġforget": 9300,
      "admin": 9301,
      "umber": 9302,
      "ĠAT": 9303,
      "esthetic": 9304,
      "ĠMove": 9305,
      "Ġ\"_": 9306,
      "ĠRom": 9307,
[...]
